<unk>	0
<s>	0
</s>	0
▁t	-0
he	-1
▁a	-2
in	-3
▁s	-4
▁w	-5
▁the	-6
▁o	-7
▁h	-8
re	-9
▁b	-10
nd	-11
ou	-12
ed	-13
▁c	-14
▁m	-15
▁i	-16
▁he	-17
er	-18
▁f	-19
ing	-20
at	-21
▁to	-22
▁d	-23
en	-24
▁and	-25
as	-26
▁l	-27
▁p	-28
is	-29
on	-30
or	-31
▁th	-32
ll	-33
▁of	-34
ar	-35
an	-36
▁in	-37
▁n	-38
it	-39
▁ha	-40
▁g	-41
es	-42
▁was	-43
om	-44
ld	-45
▁be	-46
le	-47
ot	-48
ut	-49
ow	-50
id	-51
▁e	-52
▁it	-53
▁y	-54
▁on	-55
▁st	-56
gh	-57
im	-58
ic	-59
et	-60
▁had	-61
ly	-62
▁his	-63
ac	-64
ve	-65
▁r	-66
ay	-67
▁that	-68
▁you	-69
▁wh	-70
st	-71
se	-72
▁she	-73
▁u	-74
▁re	-75
ent	-76
ould	-77
▁her	-78
ght	-79
▁we	-80
ith	-81
ad	-82
▁for	-83
ver	-84
al	-85
▁with	-86
ir	-87
ke	-88
ur	-89
oo	-90
▁an	-91
▁at	-92
▁as	-93
▁him	-94
am	-95
▁k	-96
ion	-97
▁j	-98
ight	-99
▁not	-100
▁sa	-101
ro	-102
her	-103
▁but	-104
▁se	-105
all	-106
▁sh	-107
ch	-108
▁fr	-109
ce	-110
ter	-111
red	-112
▁li	-113
▁do	-114
ain	-115
il	-116
▁ne	-117
ill	-118
ked	-119
pp	-120
el	-121
ome	-122
▁whe	-123
▁would	-124
▁su	-125
▁they	-126
▁ch	-127
▁there	-128
out	-129
▁out	-130
ri	-131
▁so	-132
▁said	-133
▁me	-134
▁up	-135
ct	-136
ore	-137
▁no	-138
ack	-139
ie	-140
ard	-141
ag	-142
▁ab	-143
▁all	-144
▁have	-145
rou	-146
ant	-147
▁al	-148
▁from	-149
▁were	-150
▁kn	-151
▁could	-152
un	-153
▁go	-154
ess	-155
hing	-156
▁or	-157
ind	-158
ust	-159
▁ro	-160
us	-161
▁int	-162
▁de	-163
▁one	-164
▁what	-165
one	-166
and	-167
▁did	-168
king	-169
▁this	-170
ig	-171
art	-172
▁le	-173
ab	-174
▁my	-175
own	-176
▁when	-177
▁man	-178
qu	-179
▁v	-180
▁sp	-181
ss	-182
▁is	-183
lo	-184
ous	-185
ame	-186
ap	-187
▁like	-188
▁co	-189
▁been	-190
em	-191
hed	-192
ul	-193
ck	-194
um	-195
ist	-196
▁if	-197
fe	-198
ers	-199
▁po	-200
▁about	-201
ood	-202
▁con	-203
▁them	-204
lf	-205
ast	-206
▁loo	-207
▁un	-208
ong	-209
au	-210
est	-211
▁bo	-212
ven	-213
▁wor	-214
▁pl	-215
▁into	-216
▁ex	-217
▁by	-218
ake	-219
▁fe	-220
way	-221
ide	-222
▁back	-223
▁any	-224
▁who	-225
ge	-226
ry	-227
itt	-228
▁then	-229
ate	-230
ra	-231
▁some	-232
▁too	-233
ace	-234
our	-235
▁ag	-236
ice	-237
ort	-238
very	-239
▁over	-240
▁now	-241
▁down	-242
ep	-243
▁tim	-244
if	-245
▁mo	-246
ive	-247
urn	-248
are	-249
ich	-250
▁thou	-251
self	-252
▁get	-253
▁com	-254
▁off	-255
ation	-256
▁their	-257
▁cl	-258
▁br	-259
op	-260
▁tw	-261
▁sm	-262
ally	-263
ure	-264
pt	-265
▁af	-266
▁bl	-267
ell	-268
▁lo	-269
▁jo	-270
ound	-271
▁hand	-272
led	-273
▁pre	-274
▁know	-275
ink	-276
▁gr	-277
▁qu	-278
dy	-279
ick	-280
▁which	-281
▁en	-282
▁sc	-283
▁again	-284
▁just	-285
ered	-286
ile	-287
ine	-288
▁time	-289
ved	-290
ty	-291
ite	-292
▁can	-293
ther	-294
▁ar	-295
▁your	-296
▁see	-297
ars	-298
round	-299
other	-300
▁how	-301
th	-302
▁even	-303
▁mr	-304
fore	-305
▁pro	-306
▁thought	-307
dd	-308
▁old	-309
▁tr	-310
▁more	-311
ft	-312
ass	-313
▁wat	-314
ath	-315
▁ey	-316
▁after	-317
▁day	-318
▁only	-319
ull	-320
ittle	-321
▁before	-322
ang	-323
ren	-324
pe	-325
▁little	-326
wn	-327
▁don	-328
▁want	-329
ak	-330
▁im	-331
ity	-332
▁sl	-333
▁sw	-334
ew	-335
nder	-336
▁went	-337
ber	-338
▁bec	-339
▁didn	-340
▁where	-341
ble	-342
ving	-343
▁got	-344
▁som	-345
ud	-346
ance	-347
▁two	-348
orn	-349
▁mad	-350
▁here	-351
▁every	-352
▁fl	-353
▁car	-354
▁other	-355
▁came	-356
ire	-357
▁way	-358
▁pe	-359
▁somet	-360
▁around	-361
ol	-362
▁ac	-363
able	-364
▁long	-365
▁say	-366
▁us	-367
ild	-368
▁let	-369
▁turn	-370
▁will	-371
▁never	-372
▁still	-373
ings	-374
▁than	-375
▁dr	-376
ment	-377
▁rem	-378
ach	-379
ish	-380
pped	-381
▁come	-382
act	-383
air	-384
ies	-385
▁door	-386
▁room	-387
ip	-388
▁mu	-389
▁wa	-390
▁looked	-391
▁well	-392
age	-393
▁good	-394
ark	-395
oun	-396
▁pr	-397
ious	-398
▁fel	-399
▁knew	-400
▁ke	-401
▁op	-402
int	-403
▁ho	-404
ated	-405
ause	-406
▁are	-407
iss	-408
thing	-409
ave	-410
▁am	-411
ough	-412
▁dis	-413
▁eyes	-414
bo	-415
ward	-416
rough	-417
▁through	-418
ened	-419
ried	-420
▁head	-421
ose	-422
▁app	-423
▁made	-424
▁seem	-425
ne	-426
ouse	-427
▁gl	-428
▁bet	-429
▁much	-430
▁right	-431
▁str	-432
av	-433
ress	-434
▁fir	-435
▁going	-436
▁gre	-437
▁himself	-438
co	-439
ub	-440
▁new	-441
▁call	-442
▁cr	-443
▁ye	-444
ff	-445
▁night	-446
▁something	-447
▁wal	-448
▁take	-449
▁because	-450
▁away	-451
ather	-452
▁ad	-453
ue	-454
ared	-455
▁think	-456
▁ma	-457
ence	-458
▁te	-459
▁felt	-460
ree	-461
ched	-462
▁wom	-463
▁look	-464
iz	-465
▁gu	-466
▁might	-467
▁under	-468
▁should	-469
de	-470
▁fo	-471
tain	-472
▁why	-473
▁own	-474
▁put	-475
▁house	-476
ady	-477
▁make	-478
▁part	-479
ans	-480
ary	-481
▁left	-482
▁first	-483
▁men	-484
▁per	-485
te	-486
▁bot	-487
pl	-488
▁bu	-489
▁ph	-490
▁face	-491
ase	-492
ied	-493
▁its	-494
▁told	-495
hes	-496
▁clo	-497
▁wait	-498
side	-499
ek	-500
ool	-501
ting	-502
▁while	-503
▁must	-504
▁stre	-505
hn	-506
ted	-507
ross	-508
▁saw	-509
ful	-510
▁turned	-511
▁asked	-512
▁tell	-513
▁took	-514
ling	-515
▁beg	-516
▁john	-517
▁seemed	-518
ily	-519
▁sk	-520
▁boy	-521
anc	-522
ness	-523
os	-524
ways	-525
▁home	-526
▁big	-527
▁imp	-528
▁tal	-529
body	-530
▁very	-531
ix	-532
▁wr	-533
▁feel	-534
▁once	-535
ia	-536
ug	-537
▁des	-538
▁mom	-539
▁miss	-540
▁always	-541
▁bre	-542
▁nothing	-543
ople	-544
ction	-545
▁happ	-546
▁people	-547
ng	-548
per	-549
▁pa	-550
▁sn	-551
▁mrs	-552
▁same	-553
ctor	-554
▁moment	-555
xt	-556
▁che	-557
▁light	-558
ank	-559
▁el	-560
▁life	-561
▁another	-562
ps	-563
▁comp	-564
▁those	-565
▁em	-566
▁cle	-567
▁spe	-568
▁work	-569
▁place	-570
ign	-571
les	-572
▁sat	-573
▁stood	-574
be	-575
ci	-576
iv	-577
irl	-578
▁vo	-579
ater	-580
▁war	-581
▁care	-582
▁last	-583
▁found	-584
▁anything	-585
igh	-586
▁bed	-587
▁sure	-588
ont	-589
ord	-590
arly	-591
▁cont	-592
▁thing	-593
uck	-594
▁arm	-595
▁mar	-596
▁ste	-597
▁wind	-598
▁enough	-599
ts	-600
▁fin	-601
▁min	-602
▁next	-603
▁woman	-604
▁young	-605
ens	-606
▁sto	-607
▁cour	-608
lie	-609
ook	-610
less	-611
▁sur	-612
▁child	-613
▁street	-614
mo	-615
▁black	-616
ons	-617
▁may	-618
▁char	-619
▁small	-620
▁start	-621
▁white	-622
▁years	-623
ict	-624
son	-625
▁set	-626
▁dark	-627
▁water	-628
▁couldn	-629
ail	-630
ged	-631
▁find	-632
▁girl	-633
▁being	-634
sp	-635
ise	-636
orm	-637
▁open	-638
▁sound	-639
ning	-640
pect	-641
▁far	-642
▁pat	-643
▁morn	-644
▁remem	-645
▁toward	-646
▁beh	-647
bb	-648
get	-649
▁unt	-650
ching	-651
▁keep	-652
▁hands	-653
▁against	-654
aw	-655
ph	-656
▁god	-657
▁these	-658
▁morning	-659
der	-660
ory	-661
▁real	-662
▁road	-663
▁wanted	-664
no	-665
dden	-666
▁ale	-667
owed	-668
urch	-669
▁inst	-670
▁mind	-671
▁pass	-672
▁thin	-673
▁wasn	-674
▁heard	-675
enc	-676
ible	-677
▁bus	-678
▁sudden	-679
ired	-680
ised	-681
▁cur	-682
▁dec	-683
▁our	-684
▁most	-685
▁side	-686
▁voice	-687
up	-688
▁wo	-689
▁try	-690
ished	-691
▁pres	-692
▁word	-693
▁behind	-694
▁better	-695
▁without	-696
pr	-697
ned	-698
ple	-699
▁few	-700
▁kill	-701
▁week	-702
cc	-703
ions	-704
outh	-705
aring	-706
▁pain	-707
▁supp	-708
▁until	-709
oney	-710
▁hot	-711
▁yes	-712
▁three	-713
▁across	-714
▁really	-715
▁things	-716
ung	-717
▁ed	-718
ably	-719
cept	-720
▁lau	-721
▁list	-722
▁church	-723
uc	-724
▁ent	-725
▁ret	-726
▁yet	-727
▁hard	-728
▁mother	-729
▁though	-730
▁window	-731
itc	-732
ped	-733
airs	-734
▁dri	-735
▁par	-736
▁red	-737
atter	-738
▁great	-739
row	-740
ange	-741
iver	-742
▁dro	-743
▁pol	-744
▁sin	-745
▁both	-746
bed	-747
day	-748
een	-749
▁run	-750
▁swe	-751
▁ever	-752
▁front	-753
ffe	-754
▁gi	-755
▁bar	-756
▁end	-757
▁pap	-758
aking	-759
▁gone	-760
▁hair	-761
▁att	-762
▁ten	-763
▁each	-764
▁along	-765
ner	-766
ors	-767
ves	-768
most	-769
▁ref	-770
▁looking	-771
cl	-772
ield	-773
▁ang	-774
▁fig	-775
▁rep	-776
▁ser	-777
iness	-778
▁days	-779
▁hour	-780
▁called	-781
▁walked	-782
aps	-783
rest	-784
ully	-785
▁give	-786
▁need	-787
▁began	-788
▁course	-789
ley	-790
▁has	-791
▁tri	-792
ating	-793
▁money	-794
raw	-795
room	-796
▁air	-797
▁coun	-798
▁kind	-799
▁play	-800
▁almost	-801
umb	-802
iled	-803
ized	-804
ters	-805
▁act	-806
▁cap	-807
▁flo	-808
▁hel	-809
▁sch	-810
▁phil	-811
sh	-812
ian	-813
▁aw	-814
▁gun	-815
▁hop	-816
▁sil	-817
▁dist	-818
▁half	-819
▁hold	-820
▁such	-821
gether	-822
▁wouldn	-823
▁suddenly	-824
ey	-825
hen	-826
ier	-827
ike	-828
▁dre	-829
▁har	-830
▁tre	-831
ition	-832
▁gave	-833
▁stand	-834
▁everything	-835
app	-836
ash	-837
att	-838
ife	-839
▁ple	-840
▁win	-841
▁cold	-842
▁high	-843
▁many	-844
▁point	-845
▁since	-846
▁office	-847
▁ob	-848
▁reg	-849
▁body	-850
▁love	-851
▁together	-852
cked	-853
ense	-854
▁col	-855
▁ins	-856
▁kid	-857
▁res	-858
▁sle	-859
▁son	-860
▁clos	-861
▁done	-862
▁hadn	-863
▁rest	-864
▁stay	-865
▁leave	-866
ect	-867
med	-868
▁mon	-869
▁clot	-870
▁minut	-871
sw	-872
▁oh	-873
▁dif	-874
▁ele	-875
▁sim	-876
feren	-877
▁comm	-878
▁hall	-879
▁wall	-880
▁doctor	-881
▁father	-882
▁herself	-883
so	-884
aut	-885
iet	-886
▁sho	-887
ained	-888
▁step	-889
▁later	-890
az	-891
iend	-892
part	-893
▁acc	-894
▁bro	-895
aught	-896
▁inte	-897
▁past	-898
▁slow	-899
ertain	-900
mm	-901
hel	-902
ards	-903
ient	-904
▁hur	-905
▁short	-906
ual	-907
▁fam	-908
▁else	-909
▁poss	-910
▁friend	-911
▁return	-912
▁stopped	-913
ial	-914
man	-915
▁ev	-916
ined	-917
▁answ	-918
▁conf	-919
▁dead	-920
▁four	-921
▁seen	-922
▁trou	-923
▁maybe	-924
▁tried	-925
▁figure	-926
▁underst	-927
amed	-928
head	-929
here	-930
ston	-931
ween	-932
▁del	-933
▁ide	-934
▁six	-935
▁vis	-936
ement	-937
▁alex	-938
▁show	-939
▁sign	-940
▁dress	-941
▁between	-942
ene	-943
ided	-944
▁bott	-945
▁feet	-946
▁mean	-947
▁pull	-948
▁alone	-949
▁table	-950
▁started	-951
gg	-952
ason	-953
ever	-954
▁add	-955
▁lot	-956
▁occ	-957
ached	-958
fully	-959
ident	-960
▁world	-961
mb	-962
ny	-963
aces	-964
cond	-965
ical	-966
▁bes	-967
▁job	-968
▁rec	-969
icked	-970
▁heav	-971
▁inter	-972
▁quite	-973
▁whole	-974
▁remember	-975
ru	-976
haps	-977
▁mur	-978
▁squ	-979
▁sun	-980
ening	-981
▁pers	-982
▁thir	-983
▁moved	-984
▁perhaps	-985
▁interest	-986
ger	-987
ton	-988
used	-989
ying	-990
▁bit	-991
▁met	-992
ither	-993
▁foll	-994
▁hell	-995
rought	-996
▁floor	-997
▁second	-998
oke	-999
oud	-1000
▁inc	-1001
ready	-1002
▁coll	-1003
▁hear	-1004
▁land	-1005
▁name	-1006
▁talk	-1007
iously	-1008
itting	-1009
▁surpr	-1010
▁coming	-1011
ta	-1012
ced	-1013
ming	-1014
▁blo	-1015
▁cou	-1016
▁ind	-1017
▁low	-1018
▁rel	-1019
▁sal	-1020
ience	-1021
ister	-1022
ually	-1023
▁does	-1024
▁imag	-1025
▁early	-1026
▁inside	-1027
amp	-1028
▁hu	-1029
▁cat	-1030
▁eas	-1031
▁exp	-1032
▁mus	-1033
▁case	-1034
▁fell	-1035
▁kept	-1036
▁pret	-1037
▁read	-1038
▁soon	-1039
ention	-1040
▁belie	-1041
▁certain	-1042
▁clothes	-1043
▁waiting	-1044
ah	-1045
▁ge	-1046
aken	-1047
enty	-1048
▁bad	-1049
▁bur	-1050
▁chr	-1051
▁cre	-1052
▁sit	-1053
▁also	-1054
▁appe	-1055
▁corn	-1056
▁fing	-1057
▁five	-1058
▁help	-1059
▁build	-1060
▁close	-1061
▁coffe	-1062
▁mouth	-1063
▁school	-1064
▁trying	-1065
▁already	-1066
▁happened	-1067
ult	-1068
▁eye	-1069
▁mot	-1070
▁ball	-1071
▁brought	-1072
▁outside	-1073
▁business	-1074
ib	-1075
ins	-1076
ron	-1077
ten	-1078
aced	-1079
▁ask	-1080
▁sky	-1081
▁stu	-1082
▁sub	-1083
▁ter	-1084
iling	-1085
▁conc	-1086
▁cons	-1087
▁used	-1088
▁wife	-1089
▁death	-1090
▁drink	-1091
▁hotel	-1092
▁coffee	-1093
▁reason	-1094
▁getting	-1095
iam	-1096
ime	-1097
ret	-1098
unk	-1099
ush	-1100
▁hor	-1101
▁tou	-1102
owing	-1103
pping	-1104
▁fore	-1105
▁held	-1106
▁beaut	-1107
▁break	-1108
▁rober	-1109
▁matter	-1110
▁slowly	-1111
partment	-1112
zz	-1113
ond	-1114
inda	-1115
▁lay	-1116
▁fire	-1117
▁full	-1118
▁jack	-1119
▁kitc	-1120
▁prob	-1121
▁whis	-1122
▁quick	-1123
▁opened	-1124
▁kitchen	-1125
ork	-1126
▁la	-1127
ayne	-1128
form	-1129
vers	-1130
▁exc	-1131
▁fre	-1132
▁inv	-1133
▁mag	-1134
▁won	-1135
▁city	-1136
▁cous	-1137
▁mart	-1138
▁near	-1139
▁field	-1140
▁heart	-1141
▁compan	-1142
▁having	-1143
▁myself	-1144
▁feeling	-1145
▁children	-1146
▁differen	-1147
▁understand	-1148
ump	-1149
ured	-1150
▁ass	-1151
▁bab	-1152
▁det	-1153
▁dou	-1154
▁lar	-1155
▁top	-1156
where	-1157
▁idea	-1158
▁cross	-1159
▁doing	-1160
▁women	-1161
▁couple	-1162
▁trouble	-1163
▁thinking	-1164
its	-1165
ubl	-1166
▁abo	-1167
▁bel	-1168
▁fur	-1169
▁hen	-1170
▁leg	-1171
▁rid	-1172
anger	-1173
bered	-1174
▁poor	-1175
▁town	-1176
▁quest	-1177
▁river	-1178
▁expect	-1179
▁afterno	-1180
▁minutes	-1181
▁probably	-1182
ma	-1183
cial	-1184
▁eng	-1185
▁fif	-1186
▁han	-1187
▁pur	-1188
▁tra	-1189
▁unc	-1190
ently	-1191
ushed	-1192
▁fact	-1193
▁meet	-1194
▁move	-1195
▁plan	-1196
▁prom	-1197
▁scot	-1198
▁given	-1199
▁sitting	-1200
▁apartment	-1201
br	-1202
gr	-1203
io	-1204
ze	-1205
als	-1206
aked	-1207
aren	-1208
fort	-1209
▁ann	-1210
▁luc	-1211
▁ran	-1212
ering	-1213
ising	-1214
▁bobb	-1215
▁disc	-1216
▁tele	-1217
▁year	-1218
▁clean	-1219
▁linda	-1220
▁quiet	-1221
▁nobody	-1222
▁pretty	-1223
▁afternoon	-1224
ited	-1225
▁cor	-1226
▁mid	-1227
acked	-1228
▁deep	-1229
▁dire	-1230
▁kate	-1231
▁pict	-1232
▁rich	-1233
▁roll	-1234
▁stra	-1235
▁glass	-1236
▁shout	-1237
▁except	-1238
▁family	-1239
▁passed	-1240
▁standing	-1241
ms	-1242
ade	-1243
iff	-1244
▁es	-1245
ator	-1246
▁dam	-1247
▁hum	-1248
▁pet	-1249
uring	-1250
▁baby	-1251
▁lost	-1252
▁walk	-1253
▁guess	-1254
▁lived	-1255
▁steps	-1256
▁beside	-1257
▁corner	-1258
▁cousin	-1259
▁making	-1260
▁scotty	-1261
▁smiled	-1262
▁taking	-1263
▁evening	-1264
▁picture	-1265
▁straight	-1266
ys	-1267
irt	-1268
▁ra	-1269
▁sy	-1270
imes	-1271
ines	-1272
tern	-1273
▁adm	-1274
▁rac	-1275
▁sus	-1276
▁lean	-1277
▁sent	-1278
▁sort	-1279
▁stop	-1280
▁stud	-1281
▁yell	-1282
▁appro	-1283
▁clear	-1284
▁month	-1285
▁sleep	-1286
▁sweet	-1287
▁taken	-1288
▁words	-1289
▁captain	-1290
ky	-1291
gan	-1292
ief	-1293
rie	-1294
ides	-1295
▁scr	-1296
▁use	-1297
▁best	-1298
▁doll	-1299
▁hope	-1300
▁hung	-1301
▁summ	-1302
▁wish	-1303
▁above	-1304
▁paper	-1305
▁christ	-1306
▁living	-1307
▁person	-1308
▁rather	-1309
▁waited	-1310
▁roberts	-1311
ale	-1312
ern	-1313
ets	-1314
irc	-1315
ler	-1316
oth	-1317
land	-1318
orge	-1319
▁abs	-1320
▁bir	-1321
▁cal	-1322
▁isn	-1323
▁mic	-1324
▁spr	-1325
▁blue	-1326
▁cent	-1327
▁neck	-1328
▁soft	-1329
ndered	-1330
▁offic	-1331
▁others	-1332
▁someone	-1333
▁william	-1334
▁different	-1335
to	-1336
arth	-1337
ular	-1338
▁aut	-1339
▁box	-1340
▁cut	-1341
▁hat	-1342
▁law	-1343
▁sec	-1344
anged	-1345
night	-1346
umber	-1347
▁arms	-1348
▁book	-1349
▁burn	-1350
▁circ	-1351
▁doub	-1352
▁fine	-1353
▁gray	-1354
▁poet	-1355
▁sett	-1356
▁pleas	-1357
▁ready	-1358
▁caught	-1359
▁believe	-1360
▁decided	-1361
▁finally	-1362
▁sometimes	-1363
▁remembered	-1364
ho	-1365
sc	-1366
mor	-1367
path	-1368
▁din	-1369
▁bell	-1370
▁expl	-1371
▁less	-1372
▁thre	-1373
▁weeks	-1374
▁wrong	-1375
▁chance	-1376
▁police	-1377
▁seeing	-1378
▁stairs	-1379
▁teleph	-1380
▁wonder	-1381
▁station	-1382
▁building	-1383
by	-1384
ane	-1385
how	-1386
ips	-1387
ony	-1388
vie	-1389
yed	-1390
aged	-1391
cher	-1392
▁adv	-1393
▁dog	-1394
▁sor	-1395
ature	-1396
illed	-1397
rying	-1398
▁clim	-1399
▁foot	-1400
▁lead	-1401
▁mike	-1402
▁rock	-1403
▁rose	-1404
ousand	-1405
▁laugh	-1406
▁times	-1407
▁visit	-1408
▁bright	-1409
▁stared	-1410
▁twenty	-1411
▁beautif	-1412
▁watched	-1413
▁watching	-1414
den	-1415
ken	-1416
uss	-1417
ille	-1418
▁hus	-1419
ities	-1420
▁fall	-1421
▁live	-1422
▁nice	-1423
▁nodd	-1424
ically	-1425
▁among	-1426
▁bring	-1427
▁chair	-1428
▁check	-1429
▁colle	-1430
▁heavy	-1431
▁hours	-1432
▁known	-1433
▁large	-1434
▁thick	-1435
▁during	-1436
▁ground	-1437
▁picked	-1438
▁rachel	-1439
▁saying	-1440
▁strange	-1441
▁talking	-1442
▁winston	-1443
▁surprised	-1444
gn	-1445
arp	-1446
sel	-1447
ued	-1448
akes	-1449
ants	-1450
band	-1451
ches	-1452
ster	-1453
▁ago	-1454
▁fav	-1455
▁fun	-1456
▁sad	-1457
ashed	-1458
ately	-1459
▁boys	-1460
▁mark	-1461
▁rain	-1462
▁shad	-1463
ations	-1464
▁watch	-1465
▁closed	-1466
▁somebody	-1467
ax	-1468
oof	-1469
ros	-1470
▁ve	-1471
cted	-1472
ghed	-1473
ject	-1474
unch	-1475
▁cra	-1476
▁hon	-1477
▁mil	-1478
▁opp	-1479
▁smo	-1480
cking	-1481
nding	-1482
ndred	-1483
vered	-1484
▁sold	-1485
ession	-1486
▁count	-1487
▁least	-1488
▁press	-1489
▁sharp	-1490
▁answer	-1491
▁bottle	-1492
▁either	-1493
▁george	-1494
▁watson	-1495
▁bedroom	-1496
▁company	-1497
▁husband	-1498
▁married	-1499
▁thousand	-1500
▁beautiful	-1501
sa	-1502
dle	-1503
els	-1504
key	-1505
▁ju	-1506
ates	-1507
ging	-1508
▁dem	-1509
▁eug	-1510
▁med	-1511
ented	-1512
▁andy	-1513
▁empt	-1514
▁fool	-1515
▁line	-1516
▁pale	-1517
ressed	-1518
▁chief	-1519
▁drove	-1520
▁order	-1521
▁shook	-1522
▁import	-1523
▁letter	-1524
▁number	-1525
▁strong	-1526
▁comfort	-1527
▁friends	-1528
▁hundred	-1529
▁suppose	-1530
▁wondered	-1531
▁everybody	-1532
ks	-1533
ead	-1534
eth	-1535
gth	-1536
ics	-1537
owd	-1538
tly	-1539
▁je	-1540
yond	-1541
▁def	-1542
▁mut	-1543
▁shr	-1544
light	-1545
ought	-1546
▁draw	-1547
▁flow	-1548
▁hans	-1549
▁nose	-1550
▁scre	-1551
▁shut	-1552
▁spir	-1553
▁upon	-1554
▁wood	-1555
▁york	-1556
umbled	-1557
▁ahead	-1558
▁drive	-1559
▁grand	-1560
▁horse	-1561
▁sight	-1562
▁trans	-1563
▁anyone	-1564
▁beyond	-1565
▁longer	-1566
▁rector	-1567
▁summer	-1568
▁thirty	-1569
▁laughed	-1570
▁reached	-1571
▁running	-1572
▁whether	-1573
jo	-1574
ery	-1575
ize	-1576
ows	-1577
ude	-1578
ital	-1579
▁arg	-1580
▁dev	-1581
▁guy	-1582
▁sol	-1583
▁hill	-1584
▁lips	-1585
▁mary	-1586
▁myra	-1587
▁papa	-1588
▁publ	-1589
▁till	-1590
▁west	-1591
▁wild	-1592
▁wore	-1593
▁begin	-1594
▁doubt	-1595
▁fight	-1596
▁sense	-1597
▁smell	-1598
▁sorry	-1599
▁contin	-1600
▁disapp	-1601
▁nodded	-1602
▁talked	-1603
▁charlie	-1604
▁walking	-1605
▁working	-1606
zy	-1607
ape	-1608
clo	-1609
elo	-1610
ese	-1611
ote	-1612
empt	-1613
ists	-1614
ract	-1615
teen	-1616
▁fix	-1617
▁gen	-1618
▁gra	-1619
▁kay	-1620
▁lie	-1621
▁mem	-1622
▁sea	-1623
anced	-1624
aving	-1625
isted	-1626
▁alec	-1627
▁bill	-1628
▁cars	-1629
▁cool	-1630
▁farm	-1631
▁lucy	-1632
▁nick	-1633
▁safe	-1634
▁says	-1635
▁stan	-1636
▁stri	-1637
▁beach	-1638
▁dream	-1639
▁drunk	-1640
▁exper	-1641
▁music	-1642
▁today	-1643
▁become	-1644
▁dinner	-1645
▁murder	-1646
▁silent	-1647
▁dropped	-1648
▁fingers	-1649
▁instant	-1650
▁instead	-1651
▁question	-1652
▁returned	-1653
▁yourself	-1654
▁somewhere	-1655
▁telephone	-1656
ds	-1657
ka	-1658
me	-1659
bor	-1660
ert	-1661
gie	-1662
sit	-1663
une	-1664
ager	-1665
ents	-1666
fast	-1667
iced	-1668
itch	-1669
nded	-1670
▁bas	-1671
▁eff	-1672
▁fat	-1673
▁ill	-1674
▁ord	-1675
▁pie	-1676
▁pri	-1677
▁sam	-1678
ander	-1679
▁bath	-1680
▁club	-1681
▁desk	-1682
▁fear	-1683
▁hang	-1684
▁inde	-1685
▁late	-1686
▁pink	-1687
▁prev	-1688
▁quar	-1689
▁sick	-1690
▁spot	-1691
▁thro	-1692
▁true	-1693
stairs	-1694
▁blood	-1695
▁brown	-1696
▁crowd	-1697
▁girls	-1698
▁guest	-1699
▁phone	-1700
▁round	-1701
▁breath	-1702
▁pulled	-1703
▁shayne	-1704
▁stayed	-1705
▁stanley	-1706
▁breakfast	-1707
ee	-1708
ats	-1709
iny	-1710
ism	-1711
nie	-1712
ric	-1713
the	-1714
tic	-1715
use	-1716
uth	-1717
▁ow	-1718
ames	-1719
eric	-1720
hood	-1721
ison	-1722
ores	-1723
raid	-1724
rief	-1725
rupt	-1726
well	-1727
▁coo	-1728
▁hit	-1729
▁mat	-1730
▁wet	-1731
encer	-1732
ipped	-1733
▁adam	-1734
▁fred	-1735
▁free	-1736
▁ones	-1737
▁sens	-1738
▁sing	-1739
morrow	-1740
▁green	-1741
▁happy	-1742
▁meant	-1743
▁smile	-1744
▁stick	-1745
▁study	-1746
▁trees	-1747
▁martin	-1748
▁moving	-1749
▁please	-1750
▁report	-1751
▁college	-1752
▁spencer	-1753
▁finished	-1754
▁followed	-1755
▁possible	-1756
▁tomorrow	-1757
ino	-1758
men	-1759
rib	-1760
uff	-1761
zen	-1762
▁fa	-1763
born	-1764
icul	-1765
iter	-1766
ives	-1767
read	-1768
▁ble	-1769
▁est	-1770
▁jul	-1771
▁ner	-1772
▁pen	-1773
▁pow	-1774
▁sar	-1775
▁sir	-1776
ested	-1777
itted	-1778
▁able	-1779
▁cady	-1780
▁deal	-1781
▁drew	-1782
▁dust	-1783
▁grou	-1784
▁kitt	-1785
▁main	-1786
▁note	-1787
▁prof	-1788
▁warm	-1789
▁added	-1790
▁empty	-1791
▁party	-1792
▁speak	-1793
▁worry	-1794
▁americ	-1795
▁became	-1796
▁inform	-1797
▁slight	-1798
▁warren	-1799
▁brother	-1800
▁listening	-1801
wh	-1802
rol	-1803
ror	-1804
aded	-1805
aine	-1806
aret	-1807
cent	-1808
ding	-1809
eral	-1810
▁ear	-1811
▁fer	-1812
▁joe	-1813
▁lab	-1814
▁led	-1815
▁nar	-1816
▁wil	-1817
iding	-1818
ileen	-1819
lored	-1820
ously	-1821
ugged	-1822
▁bank	-1823
▁bare	-1824
▁died	-1825
▁easy	-1826
▁furn	-1827
▁gent	-1828
▁lear	-1829
▁luck	-1830
▁pock	-1831
▁port	-1832
▁seat	-1833
▁snow	-1834
▁sugg	-1835
ishing	-1836
▁const	-1837
▁doesn	-1838
▁felix	-1839
▁frank	-1840
▁sever	-1841
▁teeth	-1842
▁train	-1843
▁truth	-1844
▁uncle	-1845
▁wally	-1846
▁afraid	-1847
▁comple	-1848
▁eileen	-1849
▁listen	-1850
▁nearly	-1851
▁secret	-1852
▁within	-1853
▁dressed	-1854
▁johnnie	-1855
▁special	-1856
▁everyone	-1857
▁realized	-1858
die	-1859
erk	-1860
gin	-1861
ili	-1862
par	-1863
ply	-1864
ute	-1865
vel	-1866
▁id	-1867
osed	-1868
ount	-1869
riet	-1870
ught	-1871
velo	-1872
▁arr	-1873
▁aud	-1874
▁bag	-1875
▁equ	-1876
▁fle	-1877
▁gro	-1878
▁jew	-1879
▁lim	-1880
▁mer	-1881
▁nor	-1882
▁thr	-1883
▁tor	-1884
▁vol	-1885
ances	-1886
ility	-1887
ingly	-1888
▁anne	-1889
▁busy	-1890
▁cath	-1891
▁damn	-1892
▁east	-1893
▁enjo	-1894
▁form	-1895
▁fort	-1896
▁glad	-1897
▁hosp	-1898
▁shot	-1899
ancing	-1900
selves	-1901
▁below	-1902
▁broad	-1903
▁faces	-1904
▁group	-1905
▁loved	-1906
▁named	-1907
▁occas	-1908
▁snake	-1909
▁stiff	-1910
▁stret	-1911
▁tired	-1912
ination	-1913
▁accept	-1914
▁anyway	-1915
▁maggie	-1916
▁rolled	-1917
▁country	-1918
▁settled	-1919
▁several	-1920
▁killpath	-1921
▁shoulder	-1922
▁stranger	-1923
▁alexander	-1924
▁carefully	-1925
▁important	-1926
ha	-1927
aim	-1928
esh	-1929
lot	-1930
old	-1931
▁ce	-1932
ages	-1933
aped	-1934
aste	-1935
egan	-1936
ific	-1937
like	-1938
nday	-1939
oint	-1940
orth	-1941
ping	-1942
▁art	-1943
▁cig	-1944
▁fut	-1945
▁gle	-1946
▁glo	-1947
▁gri	-1948
▁lad	-1949
▁mau	-1950
▁mis	-1951
ative	-1952
ments	-1953
▁buck	-1954
▁cond	-1955
▁grin	-1956
▁pick	-1957
▁prop	-1958
▁reco	-1959
▁sand	-1960
▁self	-1961
▁send	-1962
pected	-1963
▁block	-1964
▁eight	-1965
▁spoke	-1966
▁state	-1967
▁bobbie	-1968
▁deegan	-1969
▁freddy	-1970
▁fright	-1971
▁leaned	-1972
▁months	-1973
▁notice	-1974
▁places	-1975
▁public	-1976
▁raised	-1977
▁simply	-1978
▁wished	-1979
▁worked	-1980
▁carried	-1981
▁entered	-1982
▁imagine	-1983
▁leaving	-1984
▁mention	-1985
▁neither	-1986
▁present	-1987
▁quietly	-1988
▁theresa	-1989
▁hospital	-1990
▁president	-1991
af	-1992
ama	-1993
inc	-1994
unt	-1995
▁da	-1996
▁ir	-1997
fect	-1998
ford	-1999
irty	-2000
oned	-2001
▁age	-2002
▁bat	-2003
▁die	-2004
▁div	-2005
▁ext	-2006
▁gil	-2007
▁ham	-2008
▁ice	-2009
▁key	-2010
▁neg	-2011
▁pay	-2012
▁por	-2013
▁reb	-2014
▁rev	-2015
cious	-2016
clock	-2017
field	-2018
tered	-2019
umped	-2020
▁bast	-2021
▁forg	-2022
▁hoag	-2023
▁hous	-2024
▁lift	-2025
ounced	-2026
▁class	-2027
▁color	-2028
▁crazy	-2029
▁eddie	-2030
▁exact	-2031
▁neigh	-2032
▁often	-2033
▁ought	-2034
▁reach	-2035
ountain	-2036
▁appear	-2037
▁bottom	-2038
▁change	-2039
▁filled	-2040
▁hardly	-2041
▁minute	-2042
▁needed	-2043
▁spread	-2044
▁letters	-2045
▁officer	-2046
▁quickly	-2047
▁somehow	-2048
▁turning	-2049
▁attention	-2050
▁themselves	-2051
amb	-2052
ipe	-2053
mon	-2054
oss	-2055
apan	-2056
cess	-2057
ians	-2058
ices	-2059
lish	-2060
ries	-2061
▁ain	-2062
▁dav	-2063
▁dol	-2064
▁enc	-2065
▁esc	-2066
▁jer	-2067
▁nav	-2068
anded	-2069
ourke	-2070
▁alth	-2071
▁boat	-2072
▁camp	-2073
▁chin	-2074
▁edge	-2075
▁exam	-2076
▁gold	-2077
▁hate	-2078
▁news	-2079
▁none	-2080
▁priv	-2081
▁rece	-2082
▁swim	-2083
▁vict	-2084
▁wide	-2085
ctions	-2086
inking	-2087
▁board	-2088
▁brain	-2089
▁cloud	-2090
▁favor	-2091
▁fixed	-2092
▁flesh	-2093
▁haven	-2094
▁japan	-2095
▁maude	-2096
▁occup	-2097
▁piece	-2098
▁relie	-2099
▁rooms	-2100
▁sarah	-2101
▁smoke	-2102
▁susan	-2103
▁touch	-2104
▁tract	-2105
▁write	-2106
▁bitter	-2107
▁danger	-2108
▁finger	-2109
▁itself	-2110
▁narrow	-2111
▁parked	-2112
▁pocket	-2113
▁rourke	-2114
▁skyros	-2115
▁wilson	-2116
▁yellow	-2117
▁forward	-2118
▁mission	-2119
▁pointed	-2120
▁shouted	-2121
▁although	-2122
▁answered	-2123
▁certainly	-2124
ns	-2125
acy	-2126
ann	-2127
aty	-2128
bby	-2129
ipp	-2130
kes	-2131
ots	-2132
ues	-2133
▁fu	-2134
arch	-2135
aven	-2136
ayer	-2137
grap	-2138
town	-2139
▁ada	-2140
▁cry	-2141
▁dut	-2142
▁gar	-2143
▁inf	-2144
▁kno	-2145
▁pal	-2146
▁rub	-2147
▁sou	-2148
▁sty	-2149
▁sym	-2150
▁und	-2151
▁vir	-2152
▁wed	-2153
acher	-2154
ining	-2155
lotte	-2156
usted	-2157
▁band	-2158
▁fail	-2159
▁fast	-2160
▁firm	-2161
▁gard	-2162
▁legs	-2163
▁loud	-2164
▁nine	-2165
▁pete	-2166
▁situ	-2167
▁skin	-2168
▁tall	-2169
▁tiny	-2170
▁tour	-2171
action	-2172
▁alive	-2173
▁andre	-2174
▁brief	-2175
▁chest	-2176
▁cover	-2177
▁david	-2178
▁earth	-2179
▁elect	-2180
▁haney	-2181
▁hurry	-2182
▁lines	-2183
▁relig	-2184
▁seven	-2185
▁shoes	-2186
▁stock	-2187
▁stone	-2188
▁story	-2189
▁third	-2190
▁threw	-2191
▁usual	-2192
▁whose	-2193
ossible	-2194
ression	-2195
▁asking	-2196
▁bother	-2197
▁gentle	-2198
▁happen	-2199
▁madden	-2200
▁possib	-2201
▁proper	-2202
▁showed	-2203
▁spirit	-2204
▁apparen	-2205
▁climbed	-2206
▁holding	-2207
▁however	-2208
▁wearing	-2209
▁appeared	-2210
▁carrying	-2211
▁expected	-2212
▁occasion	-2213
▁shoulders	-2214
▁impossible	-2215
la	-2216
vo	-2217
▁'	-2218
bit	-2219
ces	-2220
cri	-2221
ham	-2222
hip	-2223
ift	-2224
ium	-2225
ket	-2226
olo	-2227
ope	-2228
ague	-2229
anit	-2230
aper	-2231
ayed	-2232
ency	-2233
ures	-2234
▁dim	-2235
▁doc	-2236
▁eat	-2237
▁mud	-2238
▁nad	-2239
▁pan	-2240
▁pot	-2241
▁rif	-2242
hered	-2243
▁abel	-2244
▁dave	-2245
▁drag	-2246
▁fair	-2247
▁grow	-2248
▁hurt	-2249
▁mist	-2250
▁moon	-2251
▁owen	-2252
▁pack	-2253
▁pill	-2254
▁post	-2255
▁rang	-2256
▁roof	-2257
▁rous	-2258
▁serv	-2259
▁stro	-2260
▁succ	-2261
arents	-2262
idence	-2263
rietta	-2264
▁cathy	-2265
▁chick	-2266
▁fifty	-2267
▁julia	-2268
▁kitti	-2269
▁suitc	-2270
▁tight	-2271
attered	-2272
▁andrei	-2273
▁elaine	-2274
▁future	-2275
▁giving	-2276
▁indeed	-2277
▁island	-2278
▁memory	-2279
▁michel	-2280
▁nadine	-2281
▁sounds	-2282
▁spring	-2283
▁throat	-2284
▁weight	-2285
▁cigaret	-2286
▁disappe	-2287
▁exactly	-2288
▁further	-2289
▁meeting	-2290
▁noticed	-2291
▁richard	-2292
▁telling	-2293
▁tonight	-2294
▁audience	-2295
▁complete	-2296
▁distance	-2297
▁swimming	-2298
▁henrietta	-2299
gy	-2300
li	-2301
ls	-2302
ora	-2303
ott	-2304
sed	-2305
ugg	-2306
urs	-2307
▁ru	-2308
▁vi	-2309
atur	-2310
ball	-2311
clud	-2312
lley	-2313
onel	-2314
roud	-2315
▁ben	-2316
▁cup	-2317
▁dep	-2318
▁gas	-2319
▁maj	-2320
▁obv	-2321
▁tow	-2322
▁une	-2323
aming	-2324
graph	-2325
house	-2326
itten	-2327
riage	-2328
ution	-2329
▁arth	-2330
▁buzz	-2331
▁diff	-2332
▁effe	-2333
▁grab	-2334
▁king	-2335
▁kiss	-2336
▁mere	-2337
▁mess	-2338
▁mull	-2339
▁park	-2340
▁prot	-2341
▁repe	-2342
▁weak	-2343
▁aware	-2344
▁fresh	-2345
▁knife	-2346
▁older	-2347
▁porch	-2348
▁separ	-2349
▁south	-2350
▁truck	-2351
▁broken	-2352
▁center	-2353
▁effort	-2354
▁houses	-2355
▁killed	-2356
▁remain	-2357
▁shorts	-2358
▁square	-2359
▁anybody	-2360
▁changed	-2361
▁convers	-2362
▁dollars	-2363
▁dolores	-2364
▁gilborn	-2365
▁parents	-2366
▁patient	-2367
▁reading	-2368
▁smiling	-2369
▁touched	-2370
▁american	-2371
▁upstairs	-2372
▁whatever	-2373
na	-2374
ees	-2375
ges	-2376
ils	-2377
isf	-2378
let	-2379
rid	-2380
ris	-2381
uct	-2382
▁ty	-2383
coat	-2384
ddam	-2385
leep	-2386
llen	-2387
road	-2388
ship	-2389
▁cam	-2390
▁cop	-2391
▁den	-2392
▁fil	-2393
▁fly	-2394
▁jen	-2395
▁jim	-2396
▁mod	-2397
▁mor	-2398
▁pun	-2399
▁slo	-2400
acing	-2401
ality	-2402
alled	-2403
antly	-2404
eness	-2405
ified	-2406
iliar	-2407
ision	-2408
▁bene	-2409
▁conv	-2410
▁emot	-2411
▁flat	-2412
▁fold	-2413
▁food	-2414
▁grew	-2415
▁inno	-2416
▁lock	-2417
▁meek	-2418
▁mill	-2419
▁navy	-2420
▁paid	-2421
▁prep	-2422
▁prov	-2423
▁shop	-2424
▁stom	-2425
▁stub	-2426
▁stup	-2427
angelo	-2428
apping	-2429
itched	-2430
▁broke	-2431
▁casey	-2432
▁conne	-2433
▁crack	-2434
▁disco	-2435
▁excit	-2436
▁garth	-2437
▁lieut	-2438
▁payne	-2439
▁proud	-2440
▁refle	-2441
▁super	-2442
▁tremb	-2443
▁walls	-2444
▁arthur	-2445
▁asleep	-2446
▁eugene	-2447
▁forgot	-2448
▁glance	-2449
▁goddam	-2450
▁jacket	-2451
▁middle	-2452
▁shadow	-2453
▁stevie	-2454
▁whisky	-2455
▁willis	-2456
▁concern	-2457
▁crossed	-2458
▁fifteen	-2459
▁flowers	-2460
▁grinned	-2461
▁heavily	-2462
▁perform	-2463
▁silence	-2464
▁tractor	-2465
▁actually	-2466
▁listened	-2467
▁remained	-2468
▁beginning	-2469
▁situation	-2470
▁michelangelo	-2471
▁z	-2472
ald	-2473
cal	-2474
cho	-2475
ech	-2476
erm	-2477
ety	-2478
ney	-2479
oto	-2480
phe	-2481
ura	-2482
urg	-2483
ased	-2484
atic	-2485
ider	-2486
seau	-2487
umed	-2488
vere	-2489
vern	-2490
ythe	-2491
▁aff	-2492
▁anx	-2493
▁cab	-2494
▁cas	-2495
▁cla	-2496
▁cru	-2497
▁hut	-2498
▁len	-2499
▁mae	-2500
▁mir	-2501
▁nig	-2502
▁ped	-2503
▁rad	-2504
▁san	-2505
▁viv	-2506
anche	-2507
aster	-2508
astic	-2509
attle	-2510
claim	-2511
enant	-2512
ences	-2513
oming	-2514
riger	-2515
unity	-2516
▁agre	-2517
▁arri	-2518
▁beat	-2519
▁cand	-2520
▁grim	-2521
▁jess	-2522
▁lord	-2523
▁neat	-2524
▁pair	-2525
▁rail	-2526
▁resp	-2527
▁yeah	-2528
icking	-2529
rawled	-2530
▁angie	-2531
▁beard	-2532
▁burst	-2533
▁compl	-2534
▁dirty	-2535
▁dying	-2536
▁forth	-2537
▁hesit	-2538
▁invol	-2539
▁knows	-2540
▁names	-2541
▁natur	-2542
▁north	-2543
▁paris	-2544
▁pract	-2545
▁quint	-2546
▁slept	-2547
▁solid	-2548
▁spent	-2549
▁store	-2550
▁stuff	-2551
▁swung	-2552
▁terri	-2553
▁wants	-2554
aughter	-2555
▁bought	-2556
▁detect	-2557
▁direct	-2558
▁effect	-2559
▁fellow	-2560
▁forget	-2561
▁honest	-2562
▁length	-2563
▁meeker	-2564
▁necess	-2565
▁paused	-2566
▁pushed	-2567
▁recogn	-2568
▁satisf	-2569
▁signal	-2570
▁sister	-2571
▁sunday	-2572
▁virgin	-2573
▁blanche	-2574
▁english	-2575
▁keeping	-2576
▁knowing	-2577
▁moments	-2578
▁stomach	-2579
▁streets	-2580
▁studied	-2581
▁success	-2582
▁weather	-2583
▁windows	-2584
▁worried	-2585
▁darkness	-2586
▁handsome	-2587
▁japanese	-2588
▁laughing	-2589
▁minister	-2590
▁refriger	-2591
▁rousseau	-2592
▁slightly	-2593
▁thoughts	-2594
▁explained	-2595
▁questions	-2596
▁secretary	-2597
▁approached	-2598
▁lieutenant	-2599
go	-2600
lt	-2601
sk	-2602
era	-2603
hze	-2604
ilt	-2605
los	-2606
ury	-2607
yal	-2608
ades	-2609
aint	-2610
illy	-2611
ring	-2612
▁bra	-2613
▁cho	-2614
▁dad	-2615
▁moo	-2616
▁spo	-2617
▁val	-2618
anita	-2619
anted	-2620
fered	-2621
hzeer	-2622
imate	-2623
iment	-2624
inary	-2625
iston	-2626
ively	-2627
ledge	-2628
mouth	-2629
ustom	-2630
▁army	-2631
▁base	-2632
▁clut	-2633
▁desp	-2634
▁fren	-2635
▁laid	-2636
▁mach	-2637
▁mass	-2638
▁path	-2639
▁remo	-2640
▁ship	-2641
▁trip	-2642
▁vill	-2643
▁viol	-2644
▁whom	-2645
ashion	-2646
icated	-2647
inging	-2648
▁accom	-2649
▁anger	-2650
▁blind	-2651
▁bobby	-2652
▁carry	-2653
▁cough	-2654
▁faith	-2655
▁final	-2656
▁laura	-2657
▁liked	-2658
▁metal	-2659
▁newsp	-2660
▁power	-2661
▁scrat	-2662
▁stren	-2663
▁styka	-2664
▁wheel	-2665
▁wrote	-2666
▁desire	-2667
▁edythe	-2668
▁gather	-2669
▁guests	-2670
▁heaven	-2671
▁manner	-2672
▁missed	-2673
▁opport	-2674
▁patrol	-2675
▁played	-2676
▁plenty	-2677
▁relief	-2678
▁remind	-2679
▁scared	-2680
▁softly	-2681
▁stupid	-2682
▁unless	-2683
▁covered	-2684
▁figures	-2685
▁glanced	-2686
▁handley	-2687
▁hanford	-2688
▁juanita	-2689
▁mahzeer	-2690
▁promise	-2691
▁regular	-2692
▁sounded	-2693
▁staring	-2694
▁written	-2695
▁anniston	-2696
▁innocent	-2697
▁mountain	-2698
▁neighbor	-2699
▁suitcase	-2700
▁direction	-2701
▁interested	-2702
▁profession	-2703
▁comfortable	-2704
▁information	-2705
▁refrigerator	-2706
sm	-2707
che	-2708
fer	-2709
ica	-2710
mmy	-2711
que	-2712
rel	-2713
rit	-2714
wed	-2715
zed	-2716
zie	-2717
▁ca	-2718
▁er	-2719
▁lu	-2720
azed	-2721
bing	-2722
elve	-2723
enia	-2724
ffic	-2725
five	-2726
ived	-2727
olog	-2728
oted	-2729
sing	-2730
▁bon	-2731
▁dry	-2732
▁haw	-2733
▁joy	-2734
▁log	-2735
▁unh	-2736
▁var	-2737
▁ver	-2738
▁wag	-2739
▁wid	-2740
ories	-2741
ublin	-2742
using	-2743
usion	-2744
▁clam	-2745
▁cops	-2746
▁dear	-2747
▁drop	-2748
▁hino	-2749
▁maid	-2750
▁onto	-2751
▁prod	-2752
▁stir	-2753
▁susp	-2754
▁test	-2755
▁wire	-2756
aching	-2757
▁appre	-2758
▁brand	-2759
▁bride	-2760
▁brush	-2761
▁carla	-2762
▁clerk	-2763
▁clock	-2764
▁grass	-2765
▁grown	-2766
▁human	-2767
▁lunch	-2768
▁lying	-2769
▁moore	-2770
▁oppos	-2771
▁paint	-2772
▁photo	-2773
▁scene	-2774
▁serge	-2775
▁sides	-2776
▁taste	-2777
▁tommy	-2778
sidered	-2779
▁arrang	-2780
▁burton	-2781
▁charac	-2782
▁circum	-2783
▁claire	-2784
▁common	-2785
▁desper	-2786
▁eleven	-2787
▁entire	-2788
▁govern	-2789
▁handed	-2790
▁lublin	-2791
▁mickey	-2792
▁object	-2793
▁proble	-2794
▁record	-2795
▁steady	-2796
▁voices	-2797
▁curious	-2798
▁discuss	-2799
▁driving	-2800
▁eugenia	-2801
▁explain	-2802
▁forever	-2803
▁growing	-2804
▁jessica	-2805
▁learned	-2806
▁lighted	-2807
▁offered	-2808
▁service	-2809
▁smelled	-2810
▁towards	-2811
▁washing	-2812
▁familiar	-2813
▁marriage	-2814
▁painting	-2815
▁strength	-2816
▁supposed	-2817
▁knowledge	-2818
▁suggested	-2819
▁trembling	-2820
▁considered	-2821
▁understood	-2822
▁disappeared	-2823
▁conversation	-2824
▁neighborhood	-2825
do	-2826
sy	-2827
ato	-2828
ays	-2829
boy	-2830
cer	-2831
cut	-2832
nes	-2833
rad	-2834
rer	-2835
rus	-2836
ume	-2837
yer	-2838
▁hy	-2839
▁mc	-2840
▁ur	-2841
angu	-2842
enth	-2843
hand	-2844
iers	-2845
medi	-2846
ngue	-2847
over	-2848
ssed	-2849
▁bal	-2850
▁ban	-2851
▁bay	-2852
▁bul	-2853
▁dra	-2854
▁dug	-2855
▁eld	-2856
▁fog	-2857
▁fol	-2858
▁hom	-2859
▁pou	-2860
▁rom	-2861
▁sig	-2862
▁sne	-2863
▁tax	-2864
▁wis	-2865
aling	-2866
alley	-2867
apped	-2868
icate	-2869
icult	-2870
iform	-2871
iture	-2872
mbers	-2873
ndora	-2874
rance	-2875
ville	-2876
▁anno	-2877
▁appl	-2878
▁atte	-2879
▁coat	-2880
▁cost	-2881
▁crom	-2882
▁date	-2883
▁duty	-2884
▁fish	-2885
▁forb	-2886
▁game	-2887
▁hide	-2888
▁mine	-2889
▁pant	-2890
▁perm	-2891
▁repl	-2892
▁slid	-2893
▁stag	-2894
▁wear	-2895
▁angry	-2896
▁autom	-2897
▁bench	-2898
▁birth	-2899
▁blank	-2900
▁books	-2901
▁bread	-2902
▁byron	-2903
▁doaty	-2904
▁drank	-2905
▁enorm	-2906
▁event	-2907
▁extra	-2908
▁flann	-2909
▁funny	-2910
▁grace	-2911
▁hoped	-2912
▁ident	-2913
▁lobby	-2914
▁marty	-2915
▁occur	-2916
▁opium	-2917
▁peace	-2918
▁plain	-2919
▁prime	-2920
▁rifle	-2921
▁shall	-2922
▁smart	-2923
▁spend	-2924
▁steep	-2925
▁thank	-2926
▁wound	-2927
ference	-2928
ivering	-2929
▁closet	-2930
▁corrid	-2931
▁detail	-2932
▁eating	-2933
▁harold	-2934
▁harris	-2935
▁howard	-2936
▁immedi	-2937
▁includ	-2938
▁intell	-2939
▁partic	-2940
▁prison	-2941
▁regard	-2942
▁rising	-2943
▁single	-2944
▁smooth	-2945
▁social	-2946
▁struck	-2947
▁tongue	-2948
▁twelve	-2949
▁winter	-2950
▁attempt	-2951
▁beneath	-2952
▁calling	-2953
▁counter	-2954
▁dancing	-2955
▁delight	-2956
▁enjoyed	-2957
▁fashion	-2958
▁grandma	-2959
▁hurried	-2960
▁manager	-2961
▁meaning	-2962
▁members	-2963
▁missing	-2964
▁parking	-2965
▁perfect	-2966
▁section	-2967
▁uniform	-2968
▁usually	-2969
▁village	-2970
▁accepted	-2971
▁bathroom	-2972
▁circumst	-2973
▁consider	-2974
▁cromwell	-2975
▁drinking	-2976
▁entrance	-2977
▁glendora	-2978
▁shrugged	-2979
▁surprise	-2980
▁character	-2981
▁difficult	-2982
▁stretched	-2983
▁apparently	-2984
▁experience	-2985
▁government	-2986
▁photograph	-2987
▁recognized	-2988
ely	-2989
ior	-2990
lor	-2991
nde	-2992
str	-2993
▁pu	-2994
▁ug	-2995
aled	-2996
ashi	-2997
aved	-2998
azor	-2999
burg	-3000
face	-3001
idge	-3002
ints	-3003
ored	-3004
pper	-3005
udie	-3006
zing	-3007
▁ant	-3008
▁bou	-3009
▁bow	-3010
▁fro	-3011
▁hun	-3012
▁jes	-3013
▁lit	-3014
▁lou	-3015
▁mck	-3016
▁odd	-3017
▁rab	-3018
▁spl	-3019
▁tem	-3020
▁tur	-3021
▁vin	-3022
▁wit	-3023
▁wra	-3024
ammed	-3025
iento	-3026
oring	-3027
quest	-3028
rence	-3029
▁anim	-3030
▁bent	-3031
▁bull	-3032
▁card	-3033
▁cock	-3034
▁comb	-3035
▁crou	-3036
▁dign	-3037
▁dism	-3038
▁ears	-3039
▁evil	-3040
▁fist	-3041
▁gets	-3042
▁hawk	-3043
▁hero	-3044
▁hers	-3045
▁hist	-3046
▁joel	-3047
▁jour	-3048
▁lady	-3049
▁mama	-3050
▁mcfe	-3051
▁numb	-3052
▁pipe	-3053
▁pitc	-3054
▁plot	-3055
▁purp	-3056
▁rome	-3057
▁star	-3058
▁suit	-3059
▁wars	-3060
cially	-3061
ension	-3062
illing	-3063
▁admit	-3064
▁awake	-3065
▁cheek	-3066
▁comes	-3067
▁cried	-3068
▁distr	-3069
▁gener	-3070
▁greet	-3071
▁guard	-3072
▁hated	-3073
▁impat	-3074
▁inspe	-3075
▁knees	-3076
▁liter	-3077
▁local	-3078
▁ludie	-3079
▁makes	-3080
▁miles	-3081
▁naked	-3082
▁noise	-3083
▁offer	-3084
▁polit	-3085
▁razor	-3086
▁repor	-3087
▁suite	-3088
▁sweat	-3089
▁twice	-3090
▁weren	-3091
▁youth	-3092
athered	-3093
▁acting	-3094
▁agreed	-3095
▁andrus	-3096
▁anyhow	-3097
▁battle	-3098
▁belong	-3099
▁burned	-3100
▁closer	-3101
▁colors	-3102
▁custom	-3103
▁envelo	-3104
▁escape	-3105
▁follow	-3106
▁garage	-3107
▁garden	-3108
▁handle	-3109
▁height	-3110
▁ladies	-3111
▁lifted	-3112
▁lights	-3113
▁merely	-3114
▁mirror	-3115
▁placed	-3116
▁sighed	-3117
▁supper	-3118
▁valley	-3119
▁address	-3120
▁appoint	-3121
▁arrived	-3122
▁besides	-3123
▁burning	-3124
▁careful	-3125
▁catcher	-3126
▁charles	-3127
▁checked	-3128
▁colonel	-3129
▁colored	-3130
▁crowded	-3131
▁excited	-3132
▁hanging	-3133
▁hearing	-3134
▁leaders	-3135
▁painted	-3136
▁pattern	-3137
▁pitcher	-3138
▁playing	-3139
▁pleased	-3140
▁private	-3141
▁slipped	-3142
▁stepped	-3143
▁sympath	-3144
▁teacher	-3145
▁traffic	-3146
▁argiento	-3147
▁corridor	-3148
▁daughter	-3149
▁decision	-3150
▁possibly	-3151
▁sergeant	-3152
▁shouting	-3153
▁soldiers	-3154
▁startled	-3155
▁stumbled	-3156
▁condition	-3157
▁interrupt	-3158
▁necessary	-3159
▁excitement	-3160
▁opportunity	-3161
bl	-3162
aly	-3163
arm	-3164
cul	-3165
ded	-3166
dew	-3167
dge	-3168
kay	-3169
lev	-3170
lly	-3171
loo	-3172
low	-3173
not	-3174
ser	-3175
tes	-3176
ubb	-3177
umn	-3178
val	-3179
wal	-3180
▁ri	-3181
▁ut	-3182
alth	-3183
bell	-3184
cons	-3185
eley	-3186
iant	-3187
iber	-3188
inct	-3189
ones	-3190
play	-3191
riff	-3192
uing	-3193
umph	-3194
vous	-3195
what	-3196
work	-3197
▁ash	-3198
▁buy	-3199
▁egg	-3200
▁fed	-3201
▁fud	-3202
▁oce	-3203
▁pig	-3204
▁pit	-3205
▁pop	-3206
▁pos	-3207
▁rag	-3208
▁ren	-3209
▁row	-3210
▁vac	-3211
▁via	-3212
asted	-3213
derer	-3214
essed	-3215
gress	-3216
orses	-3217
right	-3218
while	-3219
▁calm	-3220
▁cott	-3221
▁dirt	-3222
▁drum	-3223
▁espe	-3224
▁lack	-3225
▁limp	-3226
▁liqu	-3227
▁lone	-3228
▁mile	-3229
▁moll	-3230
▁nest	-3231
▁nois	-3232
▁norm	-3233
▁okay	-3234
▁rank	-3235
▁rise	-3236
▁song	-3237
▁tent	-3238
▁tone	-3239
▁trig	-3240
▁type	-3241
▁unlo	-3242
abashi	-3243
inkled	-3244
terday	-3245
ushing	-3246
▁blame	-3247
▁breat	-3248
▁chris	-3249
▁dance	-3250
▁deser	-3251
▁elder	-3252
▁fired	-3253
▁frown	-3254
▁humor	-3255
▁image	-3256
▁jesus	-3257
▁langu	-3258
▁negro	-3259
▁panic	-3260
▁peter	-3261
▁relax	-3262
▁sales	-3263
▁schol	-3264
▁shirt	-3265
▁simms	-3266
▁space	-3267
▁stage	-3268
▁stuck	-3269
▁tears	-3270
▁throw	-3271
▁vague	-3272
▁works	-3273
agement	-3274
▁bridge	-3275
▁clouds	-3276
▁compos	-3277
▁cooper	-3278
▁easily	-3279
▁engine	-3280
▁forced	-3281
▁french	-3282
▁hoping	-3283
▁horses	-3284
▁jumped	-3285
▁muller	-3286
▁nigger	-3287
▁purdew	-3288
▁search	-3289
▁simple	-3290
▁surely	-3291
▁tossed	-3292
▁unhapp	-3293
▁vivian	-3294
▁appreci	-3295
▁ceiling	-3296
▁frankie	-3297
▁lucille	-3298
▁passing	-3299
▁pulling	-3300
▁putting	-3301
▁quarter	-3302
▁removed	-3303
▁sheriff	-3304
▁soldier	-3305
▁support	-3306
▁triumph	-3307
▁wedding	-3308
▁younger	-3309
▁bastards	-3310
▁mcfeeley	-3311
▁movement	-3312
▁murderer	-3313
▁muttered	-3314
▁occupied	-3315
▁opposite	-3316
▁particul	-3317
▁pleasure	-3318
▁position	-3319
▁promised	-3320
▁reaction	-3321
▁religion	-3322
▁reminded	-3323
▁somewhat	-3324
▁virginia	-3325
▁whenever	-3326
▁buildings	-3327
▁charlotte	-3328
▁cigarette	-3329
▁continued	-3330
▁following	-3331
▁kayabashi	-3332
▁meanwhile	-3333
▁mentioned	-3334
▁newspaper	-3335
▁yesterday	-3336
▁especially	-3337
▁performance	-3338
▁circumstances	-3339
bs	-3340
fo	-3341
aff	-3342
ago	-3343
bar	-3344
dan	-3345
emy	-3346
het	-3347
hor	-3348
ify	-3349
ker	-3350
lem	-3351
lig	-3352
mas	-3353
plo	-3354
pre	-3355
san	-3356
▁om	-3357
aves	-3358
cing	-3359
cise	-3360
dern	-3361
idly	-3362
lord	-3363
ners	-3364
rect	-3365
ulse	-3366
vert	-3367
wise	-3368
▁ate	-3369
▁bud	-3370
▁civ	-3371
▁cow	-3372
▁cro	-3373
▁dar	-3374
▁fit	-3375
▁gaz	-3376
▁jar	-3377
▁lap	-3378
▁lic	-3379
▁mas	-3380
▁oil	-3381
▁pom	-3382
▁rap	-3383
▁rob	-3384
▁sev	-3385
ables	-3386
ading	-3387
eping	-3388
ersen	-3389
ffith	-3390
inite	-3391
izing	-3392
osity	-3393
▁beer	-3394
▁bird	-3395
▁blow	-3396
▁choo	-3397
▁cook	-3398
▁craw	-3399
▁dawn	-3400
▁decl	-3401
▁dest	-3402
▁elec	-3403
▁fuck	-3404
▁heat	-3405
▁horn	-3406
▁inqu	-3407
▁knee	-3408
▁lots	-3409
▁mail	-3410
▁milk	-3411
▁pops	-3412
▁ross	-3413
▁sake	-3414
▁scar	-3415
▁sket	-3416
▁soul	-3417
▁stat	-3418
▁ward	-3419
▁whip	-3420
▁yard	-3421
haired	-3422
ippers	-3423
isters	-3424
lessly	-3425
ounted	-3426
▁activ	-3427
▁aside	-3428
▁birds	-3429
▁built	-3430
▁crime	-3431
▁dozen	-3432
▁eager	-3433
▁faint	-3434
▁forty	-3435
▁grave	-3436
▁habit	-3437
▁hills	-3438
▁honey	-3439
▁loose	-3440
▁mater	-3441
▁ocean	-3442
▁posit	-3443
▁seems	-3444
▁shame	-3445
▁sheet	-3446
▁sober	-3447
▁squad	-3448
▁stake	-3449
▁swall	-3450
▁upper	-3451
▁vince	-3452
▁wagon	-3453
▁widow	-3454
▁worse	-3455
▁worst	-3456
▁worth	-3457
ication	-3458
looking	-3459
▁barely	-3460
▁basket	-3461
▁beauty	-3462
▁brains	-3463
▁candle	-3464
▁chairs	-3465
▁commun	-3466
▁concer	-3467
▁county	-3468
▁damned	-3469
▁demand	-3470
▁descri	-3471
▁develo	-3472
▁estate	-3473
▁fields	-3474
▁harbor	-3475
▁holden	-3476
▁locked	-3477
▁majdan	-3478
▁market	-3479
▁modern	-3480
▁myster	-3481
▁nation	-3482
▁nature	-3483
▁nights	-3484
▁orange	-3485
▁remark	-3486
▁roared	-3487
▁rubbed	-3488
▁speech	-3489
▁suspic	-3490
▁thanks	-3491
▁thayer	-3492
▁wildly	-3493
▁account	-3494
▁brushed	-3495
▁clearly	-3496
▁doorway	-3497
▁figured	-3498
▁flannag	-3499
▁general	-3500
▁glasses	-3501
▁license	-3502
▁machine	-3503
▁managed	-3504
▁ordered	-3505
▁refused	-3506
▁respect	-3507
▁serious	-3508
▁shouldn	-3509
▁sidewal	-3510
▁spirits	-3511
▁suggest	-3512
▁worries	-3513
▁bringing	-3514
▁demanded	-3515
▁dressing	-3516
▁envelope	-3517
▁fingerpr	-3518
▁griffith	-3519
▁imagined	-3520
▁incident	-3521
▁involved	-3522
▁landlord	-3523
▁pedersen	-3524
▁pictures	-3525
▁planning	-3526
▁pleasant	-3527
▁presence	-3528
▁repeated	-3529
▁sleeping	-3530
▁terrible	-3531
▁announced	-3532
▁forgotten	-3533
▁furniture	-3534
▁obviously	-3535
▁wonderful	-3536
▁wondering	-3537
▁completely	-3538
▁interrupted	-3539
▁particularly	-3540
▁straightened	-3541
iw	-3542
oc	-3543
of	-3544
tw	-3545
box	-3546
gar	-3547
ids	-3548
ina	-3549
nel	-3550
off	-3551
omb	-3552
oon	-3553
pan	-3554
res	-3555
set	-3556
udd	-3557
uge	-3558
ancy	-3559
arsh	-3560
bbed	-3561
cien	-3562
come	-3563
irby	-3564
istr	-3565
itor	-3566
rick	-3567
roll	-3568
stit	-3569
ustr	-3570
▁deb	-3571
▁dum	-3572
▁env	-3573
▁hey	-3574
▁hub	-3575
▁imm	-3576
▁jac	-3577
▁jan	-3578
▁jud	-3579
▁lam	-3580
▁lat	-3581
▁mel	-3582
▁nin	-3583
▁ori	-3584
▁pad	-3585
▁pam	-3586
▁pas	-3587
▁ric	-3588
▁rig	-3589
▁rul	-3590
▁vie	-3591
▁wax	-3592
cient	-3593
eling	-3594
erson	-3595
inley	-3596
itude	-3597
olute	-3598
under	-3599
urday	-3600
veled	-3601
▁affe	-3602
▁aunt	-3603
▁aver	-3604
▁bear	-3605
▁beau	-3606
▁bord	-3607
▁chap	-3608
▁chic	-3609
▁clay	-3610
▁curb	-3611
▁damp	-3612
▁defe	-3613
▁disp	-3614
▁eggs	-3615
▁elev	-3616
▁emer	-3617
▁ener	-3618
▁gest	-3619
▁gran	-3620
▁haun	-3621
▁host	-3622
▁hudd	-3623
▁jane	-3624
▁jeep	-3625
▁kids	-3626
▁lose	-3627
▁magn	-3628
▁mood	-3629
▁nurs	-3630
▁pool	-3631
▁rabb	-3632
▁rand	-3633
▁rear	-3634
▁rehe	-3635
▁rode	-3636
▁size	-3637
▁soci	-3638
▁span	-3639
▁suff	-3640
▁tied	-3641
▁ugly	-3642
▁unus	-3643
▁weap	-3644
▁wine	-3645
aining	-3646
ashing	-3647
ateful	-3648
ements	-3649
ensive	-3650
iction	-3651
ipping	-3652
lights	-3653
orough	-3654
▁alert	-3655
▁begun	-3656
▁cause	-3657
▁cloth	-3658
▁doors	-3659
▁drawn	-3660
▁emplo	-3661
▁ended	-3662
▁enter	-3663
▁equal	-3664
▁fence	-3665
▁flash	-3666
▁force	-3667
▁franc	-3668
▁impro	-3669
▁incre	-3670
▁kirby	-3671
▁looks	-3672
▁marry	-3673
▁miser	-3674
▁motel	-3675
▁princ	-3676
▁reply	-3677
▁rough	-3678
▁sixty	-3679
▁stair	-3680
▁steel	-3681
▁stern	-3682
▁swell	-3683
▁tough	-3684
▁wings	-3685
▁yours	-3686
▁abrupt	-3687
▁backed	-3688
▁cannot	-3689
▁charge	-3690
▁covers	-3691
▁depart	-3692
▁design	-3693
▁distur	-3694
▁drinks	-3695
▁encour	-3696
▁excuse	-3697
▁failed	-3698
▁flower	-3699
▁flying	-3700
▁folded	-3701
▁gently	-3702
▁helped	-3703
▁instru	-3704
▁lauren	-3705
▁lawyer	-3706
▁lucien	-3707
▁motion	-3708
▁normal	-3709
▁parlor	-3710
▁poured	-3711
▁proved	-3712
▁riding	-3713
▁seated	-3714
▁silver	-3715
▁spoken	-3716
▁studio	-3717
▁thrust	-3718
▁vision	-3719
▁warsaw	-3720
▁wooden	-3721
▁attract	-3722
▁bastard	-3723
▁chicken	-3724
▁circles	-3725
▁contact	-3726
▁falling	-3727
▁funeral	-3728
▁goddamn	-3729
▁guessed	-3730
▁hamrick	-3731
▁leather	-3732
▁letting	-3733
▁lowered	-3734
▁medical	-3735
▁natural	-3736
▁numbers	-3737
▁opening	-3738
▁partlow	-3739
▁pastern	-3740
▁pressed	-3741
▁problem	-3742
▁purpose	-3743
▁shining	-3744
▁stories	-3745
▁stubble	-3746
▁subject	-3747
▁surface	-3748
▁victory	-3749
▁whiskey	-3750
▁whisper	-3751
▁witness	-3752
▁anywhere	-3753
▁directly	-3754
▁district	-3755
▁electric	-3756
▁intellig	-3757
▁johnston	-3758
▁lawrence	-3759
▁majdanek	-3760
▁mckinley	-3761
▁precious	-3762
▁saturday	-3763
▁williams	-3764
▁afterward	-3765
▁companion	-3766
▁discussed	-3767
▁mountains	-3768
▁prisoners	-3769
▁returning	-3770
▁therefore	-3771
▁disappoint	-3772
▁downstairs	-3773
▁expression	-3774
cy	-3775
hl	-3776
hu	-3777
hy	-3778
ni	-3779
ux	-3780
wr	-3781
yl	-3782
asy	-3783
bir	-3784
car	-3785
cks	-3786
elt	-3787
hod	-3788
ico	-3789
ien	-3790
igg	-3791
isc	-3792
iwa	-3793
mit	-3794
omy	-3795
reg	-3796
rin	-3797
rod	-3798
ski	-3799
▁di	-3800
▁ga	-3801
▁ry	-3802
▁uh	-3803
agne	-3804
arse	-3805
bein	-3806
bled	-3807
foot	-3808
four	-3809
hers	-3810
icem	-3811
imin	-3812
iser	-3813
lier	-3814
mons	-3815
ndle	-3816
olph	-3817
omed	-3818
pend	-3819
phew	-3820
ques	-3821
sequ	-3822
stem	-3823
view	-3824
▁amb	-3825
▁apr	-3826
▁avo	-3827
▁bri	-3828
▁bum	-3829
▁duc	-3830
▁due	-3831
▁dus	-3832
▁eur	-3833
▁fem	-3834
▁ger	-3835
▁hig	-3836
▁hol	-3837
▁hud	-3838
▁ign	-3839
▁ine	-3840
▁jag	-3841
▁jon	-3842
▁ken	-3843
▁rot	-3844
▁sex	-3845
▁tan	-3846
▁tea	-3847
▁tit	-3848
▁unf	-3849
▁wip	-3850
asons	-3851
enced	-3852
ffled	-3853
inion	-3854
inous	-3855
istol	-3856
itive	-3857
otted	-3858
rosse	-3859
story	-3860
ument	-3861
unged	-3862
ureau	-3863
verty	-3864
▁aren	-3865
▁bake	-3866
▁barn	-3867
▁betr	-3868
▁biwa	-3869
▁bone	-3870
▁cash	-3871
▁cats	-3872
▁dull	-3873
▁dumb	-3874
▁emma	-3875
▁flew	-3876
▁fudo	-3877
▁fund	-3878
▁fury	-3879
▁gall	-3880
▁gamb	-3881
▁ghet	-3882
▁hire	-3883
▁hohl	-3884
▁hole	-3885
▁huge	-3886
▁iron	-3887
▁jump	-3888
▁kent	-3889
▁lawn	-3890
▁lump	-3891
▁mare	-3892
▁musc	-3893
▁nail	-3894
▁obsc	-3895
▁paul	-3896
▁penc	-3897
▁phys	-3898
▁pier	-3899
▁prim	-3900
▁pros	-3901
▁rele	-3902
▁rese	-3903
▁reve	-3904
▁rout	-3905
▁sear	-3906
▁sigh	-3907
▁sout	-3908
▁tail	-3909
▁torn	-3910
▁wake	-3911
▁wand	-3912
▁ways	-3913
▁worn	-3914
cherty	-3915
tering	-3916
▁aloud	-3917
▁angel	-3918
▁awful	-3919
▁belly	-3920
▁boots	-3921
▁brill	-3922
▁catch	-3923
▁champ	-3924
▁chang	-3925
▁cruel	-3926
▁divor	-3927
▁estab	-3928
▁folks	-3929
▁fully	-3930
▁homes	-3931
▁honor	-3932
▁ideas	-3933
▁indif	-3934
▁labor	-3935
▁lower	-3936
▁obser	-3937
▁persu	-3938
▁plans	-3939
▁pound	-3940
▁sadly	-3941
▁ships	-3942
▁silly	-3943
▁stacy	-3944
▁stead	-3945
▁straw	-3946
▁suppl	-3947
▁thorn	-3948
▁trust	-3949
▁using	-3950
▁utter	-3951
claimed	-3952
redible	-3953
▁attend	-3954
▁bureau	-3955
▁circle	-3956
▁conrad	-3957
▁dollar	-3958
▁double	-3959
▁europe	-3960
▁experi	-3961
▁flight	-3962
▁fourth	-3963
▁golden	-3964
▁grimly	-3965
▁grosse	-3966
▁health	-3967
▁hudson	-3968
▁insist	-3969
▁joined	-3970
▁likely	-3971
▁liquor	-3972
▁lonely	-3973
▁loudly	-3974
▁marble	-3975
▁marked	-3976
▁mostly	-3977
▁motive	-3978
▁nephew	-3979
▁orders	-3980
▁peered	-3981
▁prevot	-3982
▁saddle	-3983
▁salter	-3984
▁states	-3985
▁sticks	-3986
▁strugg	-3987
▁sullen	-3988
▁temple	-3989
▁tolley	-3990
▁victor	-3991
▁washed	-3992
▁assumed	-3993
▁blanket	-3994
▁control	-3995
▁cottage	-3996
▁dignity	-3997
▁dogtown	-3998
▁earlier	-3999
▁emotion	-4000
▁evident	-4001
▁express	-4002
▁flashed	-4003
▁fortune	-4004
▁history	-4005
▁leading	-4006
▁leaning	-4007
▁lolotte	-4008
▁muffled	-4009
▁policem	-4010
▁poverty	-4011
▁princip	-4012
▁protest	-4013
▁rehears	-4014
▁robards	-4015
▁shaking	-4016
▁shelley	-4017
▁showing	-4018
▁steeple	-4019
▁unusual	-4020
▁approach	-4021
▁arranged	-4022
▁breaking	-4023
▁docherty	-4024
▁electron	-4025
▁emotions	-4026
▁enormous	-4027
▁fighting	-4028
▁forehead	-4029
▁grateful	-4030
▁hohlbein	-4031
▁insisted	-4032
▁midnight	-4033
▁randolph	-4034
▁unlocked	-4035
▁weakness	-4036
▁wrinkled	-4037
▁affection	-4038
▁champagne	-4039
▁concerned	-4040
▁crossroad	-4041
▁detective	-4042
▁gathering	-4043
▁hesitated	-4044
▁inspector	-4045
▁religious	-4046
▁shivering	-4047
▁suspected	-4048
▁appearance	-4049
▁confidence	-4050
▁difference	-4051
▁discovered	-4052
▁frightened	-4053
▁practically	-4054
▁occasionally	-4055
dr	-4056
ji	-4057
ok	-4058
we	-4059
za	-4060
aur	-4061
eed	-4062
eps	-4063
ept	-4064
fit	-4065
gno	-4066
hol	-4067
ias	-4068
iot	-4069
isk	-4070
kyo	-4071
lin	-4072
lma	-4073
oms	-4074
oop	-4075
ral	-4076
ses	-4077
sey	-4078
tle	-4079
uit	-4080
umm	-4081
urd	-4082
▁ah	-4083
▁et	-4084
▁gn	-4085
▁od	-4086
▁oy	-4087
anse	-4088
burn	-4089
clus	-4090
culi	-4091
eday	-4092
eled	-4093
emet	-4094
enji	-4095
eter	-4096
ette	-4097
fire	-4098
geon	-4099
gers	-4100
hatt	-4101
hern	-4102
hold	-4103
iday	-4104
iety	-4105
ieur	-4106
inge	-4107
ites	-4108
line	-4109
llow	-4110
lson	-4111
onna	-4112
osen	-4113
port	-4114
rent	-4115
ript	-4116
rous	-4117
urer	-4118
urse	-4119
uted	-4120
xton	-4121
zzle	-4122
▁awk	-4123
▁err	-4124
▁fac	-4125
▁fet	-4126
▁foc	-4127
▁gau	-4128
▁gay	-4129
▁gut	-4130
▁hid	-4131
▁jaw	-4132
▁kiz	-4133
▁lin	-4134
▁lip	-4135
▁mac	-4136
▁mal	-4137
▁rhy	-4138
▁rug	-4139
▁sav	-4140
▁sum	-4141
▁tip	-4142
▁tom	-4143
▁tun	-4144
▁unb	-4145
▁unw	-4146
▁van	-4147
▁wre	-4148
aches	-4149
akers	-4150
ament	-4151
antic	-4152
aries	-4153
athan	-4154
ators	-4155
atory	-4156
aware	-4157
clerk	-4158
eding	-4159
eless	-4160
estig	-4161
faced	-4162
gered	-4163
icide	-4164
ifted	-4165
iftly	-4166
inger	-4167
itish	-4168
ivers	-4169
oning	-4170
orted	-4171
otion	-4172
pered	-4173
place	-4174
pless	-4175
ribly	-4176
taire	-4177
three	-4178
ticip	-4179
unate	-4180
urity	-4181
uster	-4182
zzled	-4183
▁area	-4184
▁bomb	-4185
▁born	-4186
▁bubb	-4187
▁curi	-4188
▁dogs	-4189
▁dusk	-4190
▁goes	-4191
▁gown	-4192
▁harm	-4193
▁hast	-4194
▁igno	-4195
▁impl	-4196
▁jean	-4197
▁jews	-4198
▁jobs	-4199
▁loss	-4200
▁lung	-4201
▁ment	-4202
▁mons	-4203
▁oper	-4204
▁pace	-4205
▁page	-4206
▁pint	-4207
▁proc	-4208
▁push	-4209
▁rare	-4210
▁rent	-4211
▁ring	-4212
▁ryus	-4213
▁save	-4214
▁sell	-4215
▁shel	-4216
▁sink	-4217
▁snap	-4218
▁spec	-4219
▁spin	-4220
▁sway	-4221
▁team	-4222
▁tire	-4223
▁tiss	-4224
▁tore	-4225
▁tray	-4226
▁unex	-4227
▁vice	-4228
hattan	-4229
hentic	-4230
icient	-4231
inting	-4232
ission	-4233
ternal	-4234
uction	-4235
urance	-4236
▁aband	-4237
▁alice	-4238
▁booth	-4239
▁bored	-4240
▁bound	-4241
▁cabin	-4242
▁cards	-4243
▁cemet	-4244
▁chand	-4245
▁cheap	-4246
▁cheer	-4247
▁chose	-4248
▁chuck	-4249
▁civil	-4250
▁coast	-4251
▁court	-4252
▁devil	-4253
▁dried	-4254
▁enemy	-4255
▁evans	-4256
▁fault	-4257
▁flood	-4258
▁freed	-4259
▁geely	-4260
▁giant	-4261
▁gratt	-4262
▁inner	-4263
▁italy	-4264
▁jenny	-4265
▁learn	-4266
▁liber	-4267
▁lodge	-4268
▁notes	-4269
▁nurse	-4270
▁organ	-4271
▁plane	-4272
▁prete	-4273
▁pride	-4274
▁print	-4275
▁rabbi	-4276
▁radio	-4277
▁range	-4278
▁ridge	-4279
▁royal	-4280
▁slack	-4281
▁slide	-4282
▁smoot	-4283
▁spark	-4284
▁spect	-4285
▁spite	-4286
▁stall	-4287
▁sugar	-4288
▁tokyo	-4289
▁union	-4290
ception	-4291
colored	-4292
iculous	-4293
ilities	-4294
▁absurd	-4295
▁active	-4296
▁advent	-4297
▁advice	-4298
▁affair	-4299
▁animal	-4300
▁blonde	-4301
▁boards	-4302
▁career	-4303
▁checks	-4304
▁chosen	-4305
▁compet	-4306
▁contem	-4307
▁conven	-4308
▁curled	-4309
▁deeply	-4310
▁determ	-4311
▁device	-4312
▁dumont	-4313
▁events	-4314
▁forbes	-4315
▁gladdy	-4316
▁guards	-4317
▁hiding	-4318
▁higher	-4319
▁hungry	-4320
▁images	-4321
▁indign	-4322
▁killer	-4323
▁lotion	-4324
▁lovely	-4325
▁matson	-4326
▁method	-4327
▁packed	-4328
▁papers	-4329
▁pastor	-4330
▁peculi	-4331
▁pencil	-4332
▁pistol	-4333
▁prefer	-4334
▁refuge	-4335
▁sensed	-4336
▁settle	-4337
▁seward	-4338
▁snakes	-4339
▁sought	-4340
▁system	-4341
▁tunnel	-4342
▁unable	-4343
▁weapon	-4344
▁wicked	-4345
attering	-4346
▁accompl	-4347
▁ancient	-4348
▁anticip	-4349
▁average	-4350
▁awkward	-4351
▁briefly	-4352
▁british	-4353
▁chicago	-4354
▁contrib	-4355
▁cooking	-4356
▁dreamed	-4357
▁feather	-4358
▁foolish	-4359
▁foreign	-4360
▁gesture	-4361
▁grabbed	-4362
▁greeted	-4363
▁halfway	-4364
▁hanover	-4365
▁heights	-4366
▁highway	-4367
▁ignored	-4368
▁impulse	-4369
▁knocked	-4370
▁landing	-4371
▁lightly	-4372
▁nervous	-4373
▁obvious	-4374
▁opinion	-4375
▁panting	-4376
▁passion	-4377
▁picking	-4378
▁planned	-4379
▁reality	-4380
▁redhead	-4381
▁respons	-4382
▁restaur	-4383
▁rolling	-4384
▁routine	-4385
▁science	-4386
▁sending	-4387
▁sharply	-4388
▁simmons	-4389
▁slender	-4390
▁smashed	-4391
▁society	-4392
▁someday	-4393
▁student	-4394
▁sweater	-4395
▁swiftly	-4396
▁tension	-4397
▁tourist	-4398
▁twisted	-4399
▁unhappy	-4400
▁abruptly	-4401
▁absolute	-4402
▁accident	-4403
▁basement	-4404
▁becoming	-4405
▁believed	-4406
▁belonged	-4407
▁birthday	-4408
▁brothers	-4409
▁cemetery	-4410
▁chickens	-4411
▁childish	-4412
▁composer	-4413
▁crouched	-4414
▁delicate	-4415
▁driveway	-4416
▁elevator	-4417
▁entirely	-4418
▁favorite	-4419
▁friendly	-4420
▁frighten	-4421
▁helpless	-4422
▁informed	-4423
▁intimate	-4424
▁investig	-4425
▁jonathan	-4426
▁language	-4427
▁material	-4428
▁monsieur	-4429
▁national	-4430
▁patients	-4431
▁preacher	-4432
▁previous	-4433
▁recalled	-4434
▁regarded	-4435
▁ryusenji	-4436
▁scholars	-4437
▁speaking	-4438
▁stirring	-4439
▁studying	-4440
▁sympathy	-4441
▁thorough	-4442
▁touching	-4443
▁voltaire	-4444
▁addressed	-4445
▁authentic	-4446
▁beauclerk	-4447
▁breathing	-4448
▁brilliant	-4449
▁christian	-4450
▁christmas	-4451
▁curiosity	-4452
▁dangerous	-4453
▁expecting	-4454
▁impatient	-4455
▁including	-4456
▁interests	-4457
▁manhattan	-4458
▁moonlight	-4459
▁otherwise	-4460
▁reporters	-4461
▁riverside	-4462
▁whispered	-4463
▁cigarettes	-4464
▁crossroads	-4465
▁impression	-4466
▁leadership	-4467
▁reasonable	-4468
▁ridiculous	-4469
▁scratching	-4470
▁unexpected	-4471
▁washington	-4472
▁imagination	-4473
▁immediately	-4474
▁professional	-4475
▁stubblefield	-4476
ae	-4477
ii	-4478
ob	-4479
og	-4480
uf	-4481
va	-4482
ams	-4483
apo	-4484
awl	-4485
awn	-4486
cil	-4487
end	-4488
gus	-4489
mos	-4490
oln	-4491
ops	-4492
two	-4493
uly	-4494
wat	-4495
▁av	-4496
▁iv	-4497
▁ol	-4498
▁ul	-4499
afer	-4500
ases	-4501
atie	-4502
berg	-4503
bors	-4504
brow	-4505
ceed	-4506
elie	-4507
gged	-4508
iest	-4509
iles	-4510
ilty	-4511
more	-4512
mosp	-4513
omme	-4514
ousy	-4515
rell	-4516
sych	-4517
umes	-4518
umps	-4519
ural	-4520
zale	-4521
▁ace	-4522
▁adj	-4523
▁ank	-4524
▁bac	-4525
▁ber	-4526
▁boo	-4527
▁cad	-4528
▁deg	-4529
▁dig	-4530
▁jed	-4531
▁kah	-4532
▁mob	-4533
▁ply	-4534
▁urg	-4535
▁vio	-4536
▁wes	-4537
▁zen	-4538
apsed	-4539
arine	-4540
armed	-4541
arson	-4542
asped	-4543
bella	-4544
board	-4545
brary	-4546
cript	-4547
guson	-4548
ially	-4549
iance	-4550
ilted	-4551
iting	-4552
itzie	-4553
lined	-4554
ounce	-4555
ousie	-4556
rated	-4557
ufact	-4558
▁acqu	-4559
▁alma	-4560
▁bart	-4561
▁beck	-4562
▁bend	-4563
▁bish	-4564
▁blew	-4565
▁cafe	-4566
▁cane	-4567
▁cord	-4568
▁corp	-4569
▁cris	-4570
▁dare	-4571
▁dece	-4572
▁dick	-4573
▁echo	-4574
▁embr	-4575
▁fant	-4576
▁fled	-4577
▁fork	-4578
▁frag	-4579
▁fuss	-4580
▁fuzz	-4581
▁gang	-4582
▁gate	-4583
▁gaze	-4584
▁gift	-4585
▁glow	-4586
▁golf	-4587
▁grip	-4588
▁guys	-4589
▁hasn	-4590
▁holy	-4591
▁joan	-4592
▁join	-4593
▁june	-4594
▁kath	-4595
▁keys	-4596
▁linc	-4597
▁mast	-4598
▁noon	-4599
▁pile	-4600
▁pope	-4601
▁rack	-4602
▁requ	-4603
▁ribb	-4604
▁ride	-4605
▁salt	-4606
▁seek	-4607
▁shap	-4608
▁sour	-4609
▁spun	-4610
▁tact	-4611
▁tick	-4612
▁toes	-4613
▁tony	-4614
▁tree	-4615
▁trem	-4616
▁trib	-4617
▁tues	-4618
▁tune	-4619
▁view	-4620
▁weir	-4621
▁whir	-4622
▁wise	-4623
▁woke	-4624
▁zion	-4625
angers	-4626
bright	-4627
ential	-4628
ffered	-4629
ivered	-4630
levard	-4631
ooping	-4632
tained	-4633
▁absor	-4634
▁bible	-4635
▁bills	-4636
▁bless	-4637
▁brace	-4638
▁brass	-4639
▁bunch	-4640
▁burns	-4641
▁cared	-4642
▁chill	-4643
▁conce	-4644
▁contr	-4645
▁corps	-4646
▁crept	-4647
▁dared	-4648
▁disli	-4649
▁emile	-4650
▁exist	-4651
▁faced	-4652
▁faded	-4653
▁fifth	-4654
▁frame	-4655
▁gibby	-4656
▁grief	-4657
▁groom	-4658
▁heads	-4659
▁hirey	-4660
▁illum	-4661
▁julie	-4662
▁katie	-4663
▁lemon	-4664
▁lives	-4665
▁loyal	-4666
▁marsh	-4667
▁milit	-4668
▁moist	-4669
▁moral	-4670
▁neare	-4671
▁nerve	-4672
▁oblig	-4673
▁opera	-4674
▁plant	-4675
▁plate	-4676
▁plays	-4677
▁popul	-4678
▁psych	-4679
▁rebel	-4680
▁retre	-4681
▁rhyth	-4682
▁rider	-4683
▁rocks	-4684
▁sandw	-4685
▁scree	-4686
▁serve	-4687
▁shape	-4688
▁share	-4689
▁shock	-4690
▁shore	-4691
▁shudd	-4692
▁signs	-4693
▁skiff	-4694
▁speed	-4695
▁sport	-4696
▁squee	-4697
▁storm	-4698
▁stove	-4699
▁swept	-4700
▁tempt	-4701
▁terms	-4702
▁toast	-4703
ciously	-4704
umbling	-4705
▁action	-4706
▁advert	-4707
▁angelo	-4708
▁arrest	-4709
▁atmosp	-4710
▁author	-4711
▁barney	-4712
▁begged	-4713
▁boston	-4714
▁bullet	-4715
▁choose	-4716
▁column	-4717
▁donald	-4718
▁driver	-4719
▁dugout	-4720
▁easier	-4721
▁editor	-4722
▁energy	-4723
▁errand	-4724
▁finish	-4725
▁footst	-4726
▁gotten	-4727
▁guilty	-4728
▁headed	-4729
▁heater	-4730
▁heiser	-4731
▁hollow	-4732
▁kahler	-4733
▁ladder	-4734
▁larger	-4735
▁league	-4736
▁leaves	-4737
▁member	-4738
▁monday	-4739
▁mousie	-4740
▁mutton	-4741
▁neatly	-4742
▁nerves	-4743
▁openly	-4744
▁origin	-4745
▁paxton	-4746
▁peaked	-4747
▁perrin	-4748
▁pierre	-4749
▁powder	-4750
▁propos	-4751
▁rebell	-4752
▁recall	-4753
▁refuse	-4754
▁resent	-4755
▁revere	-4756
▁series	-4757
▁shafer	-4758
▁shower	-4759
▁smoked	-4760
▁stream	-4761
▁strode	-4762
▁stuart	-4763
▁swayed	-4764
▁switch	-4765
▁taller	-4766
▁terror	-4767
▁thelma	-4768
▁threat	-4769
▁towels	-4770
▁travel	-4771
▁unlike	-4772
▁yelled	-4773
▁admired	-4774
▁anxious	-4775
▁bathing	-4776
▁bounced	-4777
▁cleared	-4778
▁constru	-4779
▁courage	-4780
▁darling	-4781
▁defense	-4782
▁demands	-4783
▁despite	-4784
▁eternal	-4785
▁eyebrow	-4786
▁feature	-4787
▁finding	-4788
▁fishing	-4789
▁fritzie	-4790
▁johnson	-4791
▁killing	-4792
▁library	-4793
▁lincoln	-4794
▁mullins	-4795
▁painful	-4796
▁parties	-4797
▁passage	-4798
▁pasture	-4799
▁peering	-4800
▁plunged	-4801
▁protect	-4802
▁quality	-4803
▁realize	-4804
▁reasons	-4805
▁recomme	-4806
▁relaxed	-4807
▁replied	-4808
▁resting	-4809
▁sabella	-4810
▁seconds	-4811
▁singing	-4812
▁slammed	-4813
▁spanish	-4814
▁stiffly	-4815
▁tenants	-4816
▁thunder	-4817
▁tightly	-4818
▁tuesday	-4819
▁upright	-4820
▁various	-4821
▁violent	-4822
▁whoever	-4823
▁accompan	-4824
▁addition	-4825
▁confused	-4826
▁constant	-4827
▁contempt	-4828
▁continue	-4829
▁contract	-4830
▁customer	-4831
▁definite	-4832
▁dreaming	-4833
▁feathers	-4834
▁ferguson	-4835
▁fountain	-4836
▁fourteen	-4837
▁frowning	-4838
▁gathered	-4839
▁magnific	-4840
▁manufact	-4841
▁occurred	-4842
▁officers	-4843
▁ordinary	-4844
▁personal	-4845
▁plymouth	-4846
▁property	-4847
▁received	-4848
▁receiver	-4849
▁register	-4850
▁screamed	-4851
▁sidewalk	-4852
▁spinning	-4853
▁sprawled	-4854
▁steadily	-4855
▁suffered	-4856
▁surround	-4857
▁switched	-4858
▁terribly	-4859
▁troubled	-4860
▁uniforms	-4861
▁victoria	-4862
▁willings	-4863
▁arranging	-4864
▁boulevard	-4865
▁clutching	-4866
▁confusion	-4867
▁curiously	-4868
▁developed	-4869
▁efficient	-4870
▁farmhouse	-4871
▁flannagan	-4872
▁gentleman	-4873
▁happiness	-4874
▁instantly	-4875
▁katharine	-4876
▁miserable	-4877
▁naturally	-4878
▁neighbors	-4879
▁overnight	-4880
▁permitted	-4881
▁policeman	-4882
▁screaming	-4883
▁thornburg	-4884
▁atmosphere	-4885
▁christians	-4886
▁connection	-4887
▁headlights	-4888
▁importance	-4889
▁incredible	-4890
▁mysterious	-4891
▁particular	-4892
▁restaurant	-4893
▁surprising	-4894
▁thoroughly	-4895
▁advertising	-4896
▁interesting	-4897
▁scholarship	-4898
▁satisfaction	-4899
cr	-4900
eu	-4901
fl	-4902
hs	-4903
od	-4904
oy	-4905
wy	-4906
yn	-4907
yr	-4908
asc	-4909
aud	-4910
ban	-4911
bey	-4912
cch	-4913
col	-4914
eke	-4915
ggy	-4916
hus	-4917
iac	-4918
imp	-4919
irm	-4920
isa	-4921
lar	-4922
mer	-4923
nda	-4924
oli	-4925
pat	-4926
pet	-4927
pie	-4928
ppy	-4929
rar	-4930
rem	-4931
rew	-4932
rif	-4933
sch	-4934
uce	-4935
ups	-4936
van	-4937
vis	-4938
▁ap	-4939
▁du	-4940
▁ep	-4941
back	-4942
barr	-4943
case	-4944
cell	-4945
dies	-4946
eyed	-4947
gest	-4948
houn	-4949
hour	-4950
inal	-4951
ingy	-4952
ique	-4953
izon	-4954
lebr	-4955
lemn	-4956
lers	-4957
lets	-4958
mare	-4959
mbol	-4960
nsyl	-4961
otes	-4962
peii	-4963
quar	-4964
resp	-4965
rete	-4966
rily	-4967
rods	-4968
sers	-4969
time	-4970
uced	-4971
ulpt	-4972
unks	-4973
uous	-4974
vals	-4975
zaak	-4976
▁aim	-4977
▁amy	-4978
▁ast	-4979
▁awa	-4980
▁bew	-4981
▁bug	-4982
▁cav	-4983
▁cit	-4984
▁cot	-4985
▁dom	-4986
▁dor	-4987
▁dun	-4988
▁gul	-4989
▁hoo	-4990
▁jun	-4991
▁laz	-4992
▁lee	-4993
▁lur	-4994
▁max	-4995
▁net	-4996
▁non	-4997
▁pil	-4998
▁pin	-4999
▁que	-5000
▁ray	-5001
▁rou	-5002
▁ske	-5003
▁sof	-5004
▁swo	-5005
▁tap	-5006
▁ted	-5007
▁tub	-5008
▁unp	-5009
▁uns	-5010
▁wel	-5011
▁yan	-5012
aging	-5013
aired	-5014
allen	-5015
astro	-5016
bbled	-5017
cchio	-5018
chief	-5019
cohol	-5020
dered	-5021
ekend	-5022
elope	-5023
erate	-5024
ghter	-5025
icism	-5026
immed	-5027
inced	-5028
inent	-5029
istic	-5030
iving	-5031
ooped	-5032
oting	-5033
ounts	-5034
proof	-5035
thony	-5036
ucked	-5037
vania	-5038
voort	-5039
worth	-5040
▁alab	-5041
▁amaz	-5042
▁amen	-5043
▁bang	-5044
▁bold	-5045
▁bong	-5046
▁boss	-5047
▁bree	-5048
▁brut	-5049
▁canv	-5050
▁caut	-5051
▁cave	-5052
▁cell	-5053
▁chim	-5054
▁crad	-5055
▁crib	-5056
▁crit	-5057
▁dent	-5058
▁diam	-5059
▁dram	-5060
▁duck	-5061
▁emph	-5062
▁exha	-5063
▁fare	-5064
▁fasc	-5065
▁fill	-5066
▁flag	-5067
▁grad	-5068
▁init	-5069
▁joke	-5070
▁loos	-5071
▁male	-5072
▁meal	-5073
▁meas	-5074
▁mild	-5075
▁mort	-5076
▁mose	-5077
▁mour	-5078
▁neon	-5079
▁nort	-5080
▁pine	-5081
▁pity	-5082
▁plow	-5083
▁poem	-5084
▁pour	-5085
▁pred	-5086
▁rage	-5087
▁sang	-5088
▁sank	-5089
▁snat	-5090
▁soil	-5091
▁sped	-5092
▁spur	-5093
▁stow	-5094
▁surv	-5095
▁tale	-5096
▁tang	-5097
▁taut	-5098
▁taxi	-5099
▁tech	-5100
▁thie	-5101
▁thom	-5102
▁thus	-5103
▁tips	-5104
▁vest	-5105
enteen	-5106
entive	-5107
ground	-5108
ipment	-5109
liness	-5110
omfort	-5111
ronted	-5112
states	-5113
thirty	-5114
uments	-5115
vation	-5116
writer	-5117
▁admin	-5118
▁alien	-5119
▁alley	-5120
▁allow	-5121
▁annoy	-5122
▁beech	-5123
▁brave	-5124
▁brick	-5125
▁brood	-5126
▁chart	-5127
▁china	-5128
▁climb	-5129
▁crawl	-5130
▁crest	-5131
▁decor	-5132
▁demon	-5133
▁desce	-5134
▁dimly	-5135
▁dolls	-5136
▁drift	-5137
▁facts	-5138
▁farms	-5139
▁favre	-5140
▁fille	-5141
▁fists	-5142
▁fleet	-5143
▁flung	-5144
▁ganse	-5145
▁gonna	-5146
▁greek	-5147
▁gunny	-5148
▁hired	-5149
▁irrit	-5150
▁izaak	-5151
▁juice	-5152
▁keeps	-5153
▁lonel	-5154
▁lucky	-5155
▁lungs	-5156
▁magaz	-5157
▁major	-5158
▁match	-5159
▁mines	-5160
▁needs	-5161
▁negle	-5162
▁noted	-5163
▁novel	-5164
▁owned	-5165
▁phill	-5166
▁pitch	-5167
▁plump	-5168
▁price	-5169
▁remar	-5170
▁revol	-5171
▁roman	-5172
▁scand	-5173
▁scorn	-5174
▁shack	-5175
▁shake	-5176
▁simil	-5177
▁skirt	-5178
▁skull	-5179
▁slick	-5180
▁spare	-5181
▁staff	-5182
▁steak	-5183
▁stray	-5184
▁suits	-5185
▁thumb	-5186
▁track	-5187
▁trade	-5188
▁trave	-5189
▁treas	-5190
▁trial	-5191
▁truly	-5192
▁waste	-5193
▁waved	-5194
▁waves	-5195
▁weary	-5196
▁whist	-5197
▁woods	-5198
▁yield	-5199
ability	-5200
barrass	-5201
ization	-5202
ouncing	-5203
tenance	-5204
▁aboard	-5205
▁agency	-5206
▁amazed	-5207
▁amount	-5208
▁barbed	-5209
▁batter	-5210
▁bonner	-5211
▁burial	-5212
▁butter	-5213
▁casual	-5214
▁celebr	-5215
▁cursed	-5216
▁decide	-5217
▁deeper	-5218
▁degree	-5219
▁dining	-5220
▁dreams	-5221
▁driven	-5222
▁duclos	-5223
▁dumped	-5224
▁elimin	-5225
▁explan	-5226
▁facing	-5227
▁fallen	-5228
▁female	-5229
▁fitted	-5230
▁formed	-5231
▁fought	-5232
▁friday	-5233
▁fucken	-5234
▁ghetto	-5235
▁hatred	-5236
▁indust	-5237
▁insane	-5238
▁intens	-5239
▁introd	-5240
▁inward	-5241
▁latter	-5242
▁locker	-5243
▁louder	-5244
▁models	-5245
▁mollie	-5246
▁musket	-5247
▁nelson	-5248
▁overhe	-5249
▁palest	-5250
▁partly	-5251
▁patron	-5252
▁player	-5253
▁poised	-5254
▁poland	-5255
▁polish	-5256
▁portra	-5257
▁prayed	-5258
▁prayer	-5259
▁preser	-5260
▁presum	-5261
▁prompt	-5262
▁purple	-5263
▁ragged	-5264
▁rarely	-5265
▁reared	-5266
▁region	-5267
▁repair	-5268
▁resist	-5269
▁reward	-5270
▁rhythm	-5271
▁rifles	-5272
▁ruined	-5273
▁rushed	-5274
▁scream	-5275
▁screen	-5276
▁sculpt	-5277
▁season	-5278
▁served	-5279
▁shades	-5280
▁signed	-5281
▁slater	-5282
▁sleepy	-5283
▁solemn	-5284
▁somers	-5285
▁sooner	-5286
▁stands	-5287
▁strike	-5288
▁struct	-5289
▁symbol	-5290
▁taught	-5291
▁thinks	-5292
▁thrown	-5293
▁uneasy	-5294
▁upward	-5295
▁violet	-5296
▁warmth	-5297
▁waving	-5298
▁zenith	-5299
atically	-5300
quarters	-5301
▁alcohol	-5302
▁allowed	-5303
▁anthony	-5304
▁arguing	-5305
▁ashamed	-5306
▁boiling	-5307
▁boredom	-5308
▁calhoun	-5309
▁century	-5310
▁chapter	-5311
▁cleaned	-5312
▁collect	-5313
▁comment	-5314
▁concent	-5315
▁contain	-5316
▁council	-5317
▁cousins	-5318
▁creaked	-5319
▁deliber	-5320
▁despair	-5321
▁devoted	-5322
▁diamond	-5323
▁display	-5324
▁distant	-5325
▁divided	-5326
▁divorce	-5327
▁dragged	-5328
▁drawing	-5329
▁dresses	-5330
▁efforts	-5331
▁elderly	-5332
▁emerged	-5333
▁engaged	-5334
▁grabski	-5335
▁greater	-5336
▁hallway	-5337
▁hastily	-5338
▁horizon	-5339
▁huddled	-5340
▁illustr	-5341
▁jackson	-5342
▁jacques	-5343
▁jarrods	-5344
▁journey	-5345
▁kidding	-5346
▁million	-5347
▁motives	-5348
▁needham	-5349
▁norberg	-5350
▁nowhere	-5351
▁objects	-5352
▁painter	-5353
▁pauling	-5354
▁pearson	-5355
▁pennsyl	-5356
▁pompeii	-5357
▁precise	-5358
▁prepare	-5359
▁puzzled	-5360
▁rapidly	-5361
▁redcoat	-5362
▁reflect	-5363
▁refugee	-5364
▁release	-5365
▁roberta	-5366
▁rossoff	-5367
▁rubbing	-5368
▁seeking	-5369
▁setting	-5370
▁sharing	-5371
▁shocked	-5372
▁smaller	-5373
▁snapped	-5374
▁snoring	-5375
▁stretch	-5376
▁surgeon	-5377
▁suspect	-5378
▁swollen	-5379
▁tumbled	-5380
▁useless	-5381
▁utterly	-5382
▁vaguely	-5383
▁vecchio	-5384
▁visited	-5385
▁wanting	-5386
▁weekend	-5387
▁western	-5388
▁wounded	-5389
▁wrapped	-5390
▁absorbed	-5391
▁activity	-5392
▁albright	-5393
▁antelope	-5394
▁apparent	-5395
▁attached	-5396
▁baseball	-5397
▁bursting	-5398
▁casually	-5399
▁cheerful	-5400
▁chuckled	-5401
▁contempl	-5402
▁coughlin	-5403
▁creature	-5404
▁deserted	-5405
▁director	-5406
▁discover	-5407
▁disliked	-5408
▁downtown	-5409
▁drawings	-5410
▁dropping	-5411
▁eighteen	-5412
▁enjoying	-5413
▁examined	-5414
▁gambling	-5415
▁included	-5416
▁instance	-5417
▁laughter	-5418
▁marching	-5419
▁murdered	-5420
▁physical	-5421
▁positive	-5422
▁powerful	-5423
▁prepared	-5424
▁pressing	-5425
▁progress	-5426
▁provided	-5427
▁quarters	-5428
▁railroad	-5429
▁recently	-5430
▁repaired	-5431
▁replaced	-5432
▁reported	-5433
▁reverend	-5434
▁sandwich	-5435
▁separate	-5436
▁shopping	-5437
▁silently	-5438
▁southern	-5439
▁strained	-5440
▁striking	-5441
▁stronger	-5442
▁stubborn	-5443
▁trousers	-5444
▁visiting	-5445
▁wherever	-5446
▁allstates	-5447
▁anxiously	-5448
▁appointed	-5449
▁askington	-5450
▁childhood	-5451
▁conscious	-5452
▁convinced	-5453
▁described	-5454
▁desperate	-5455
▁disturbed	-5456
▁embarrass	-5457
▁entertain	-5458
▁equipment	-5459
▁expensive	-5460
▁gentlemen	-5461
▁indicated	-5462
▁intervals	-5463
▁literally	-5464
▁nightmare	-5465
▁possessed	-5466
▁primitive	-5467
▁principal	-5468
▁reflected	-5469
▁respected	-5470
▁searching	-5471
▁sentiment	-5472
▁seriously	-5473
▁stillness	-5474
▁thousands	-5475
▁uncomfort	-5476
▁afterwards	-5477
▁confronted	-5478
▁determined	-5479
▁everywhere	-5480
▁gansevoort	-5481
▁occasional	-5482
▁successful	-5483
▁throughout	-5484
▁typewriter	-5485
▁desperately	-5486
▁experienced	-5487
▁fingerprint	-5488
▁intelligent	-5489
▁reactionary	-5490
▁arrangements	-5491
▁headquarters	-5492
▁jarrodsville	-5493
▁pennsylvania	-5494
▁investigation	-5495
▁understanding	-5496
da	-5497
gl	-5498
gu	-5499
iy	-5500
ki	-5501
lu	-5502
oe	-5503
po	-5504
rh	-5505
agg	-5506
ala	-5507
ami	-5508
bag	-5509
cap	-5510
con	-5511
cto	-5512
dom	-5513
ibs	-5514
icy	-5515
izz	-5516
kee	-5517
nal	-5518
nik	-5519
oes	-5520
ona	-5521
pit	-5522
pot	-5523
rep	-5524
rog	-5525
rop	-5526
scr	-5527
uar	-5528
uel	-5529
und	-5530
vin	-5531
vit	-5532
zee	-5533
▁aj	-5534
▁ax	-5535
▁hi	-5536
ache	-5537
acle	-5538
ains	-5539
alls	-5540
aned	-5541
assy	-5542
aver	-5543
bank	-5544
bird	-5545
book	-5546
cast	-5547
dges	-5548
down	-5549
dued	-5550
elia	-5551
girl	-5552
hens	-5553
hert	-5554
host	-5555
iana	-5556
iano	-5557
iner	-5558
isco	-5559
ises	-5560
itud	-5561
ival	-5562
keep	-5563
lend	-5564
llie	-5565
lted	-5566
mark	-5567
mate	-5568
mber	-5569
moil	-5570
nese	-5571
nine	-5572
onse	-5573
osop	-5574
othy	-5575
outs	-5576
reme	-5577
robe	-5578
roft	-5579
ssip	-5580
ties	-5581
uled	-5582
umer	-5583
unte	-5584
uven	-5585
wing	-5586
wood	-5587
▁ack	-5588
▁ari	-5589
▁bob	-5590
▁cun	-5591
▁ded	-5592
▁dil	-5593
▁elb	-5594
▁exh	-5595
▁fab	-5596
▁fis	-5597
▁fox	-5598
▁gum	-5599
▁hem	-5600
▁ing	-5601
▁inn	-5602
▁iss	-5603
▁lif	-5604
▁lob	-5605
▁mix	-5606
▁nod	-5607
▁nut	-5608
▁ole	-5609
▁pac	-5610
▁plo	-5611
▁rip	-5612
▁ros	-5613
▁roy	-5614
▁rum	-5615
▁sac	-5616
▁sel	-5617
▁shy	-5618
▁sul	-5619
▁tux	-5620
▁ult	-5621
▁vel	-5622
▁ven	-5623
▁vit	-5624
aimed	-5625
ambre	-5626
apers	-5627
apoka	-5628
apper	-5629
awing	-5630
aying	-5631
bound	-5632
brush	-5633
chers	-5634
chest	-5635
coats	-5636
eenth	-5637
enses	-5638
erred	-5639
erted	-5640
gging	-5641
heart	-5642
heast	-5643
hetic	-5644
icted	-5645
imony	-5646
inter	-5647
iring	-5648
ishly	-5649
itzee	-5650
kered	-5651
linda	-5652
lying	-5653
mured	-5654
olman	-5655
orous	-5656
ouces	-5657
owled	-5658
piece	-5659
quent	-5660
rible	-5661
rowed	-5662
ssing	-5663
tcher	-5664
uffed	-5665
ulted	-5666
umble	-5667
unted	-5668
uveni	-5669
water	-5670
yment	-5671
▁airy	-5672
▁alib	-5673
▁anta	-5674
▁arch	-5675
▁asks	-5676
▁banc	-5677
▁beds	-5678
▁bern	-5679
▁bisc	-5680
▁bore	-5681
▁bowl	-5682
▁bran	-5683
▁bulb	-5684
▁cale	-5685
▁cape	-5686
▁coff	-5687
▁cong	-5688
▁crew	-5689
▁deac	-5690
▁deny	-5691
▁diag	-5692
▁dice	-5693
▁dish	-5694
▁ench	-5695
▁exch	-5696
▁exer	-5697
▁exte	-5698
▁eyel	-5699
▁fart	-5700
▁fier	-5701
▁file	-5702
▁film	-5703
▁fond	-5704
▁ford	-5705
▁germ	-5706
▁gigg	-5707
▁goat	-5708
▁gord	-5709
▁hamb	-5710
▁hank	-5711
▁heap	-5712
▁hips	-5713
▁huts	-5714
▁inch	-5715
▁kick	-5716
▁kidn	-5717
▁lake	-5718
▁lazy	-5719
▁leap	-5720
▁lest	-5721
▁link	-5722
▁lore	-5723
▁loun	-5724
▁mask	-5725
▁melo	-5726
▁mont	-5727
▁mult	-5728
▁octo	-5729
▁peas	-5730
▁piet	-5731
▁pige	-5732
▁pitt	-5733
▁pure	-5734
▁purs	-5735
▁ruin	-5736
▁rush	-5737
▁rust	-5738
▁shab	-5739
▁shoe	-5740
▁silk	-5741
▁sons	-5742
▁soot	-5743
▁soph	-5744
▁spat	-5745
▁stal	-5746
▁stam	-5747
▁stol	-5748
▁text	-5749
▁tomb	-5750
▁unit	-5751
▁unre	-5752
▁vacu	-5753
▁vast	-5754
▁wave	-5755
▁weep	-5756
▁weig	-5757
▁wolf	-5758
agging	-5759
ambled	-5760
anches	-5761
antage	-5762
asting	-5763
atives	-5764
backed	-5765
ceeded	-5766
ckings	-5767
closed	-5768
cluded	-5769
encies	-5770
father	-5771
icious	-5772
inated	-5773
ingled	-5774
nesday	-5775
racted	-5776
resses	-5777
retted	-5778
school	-5779
uffled	-5780
ulture	-5781
▁acala	-5782
▁actor	-5783
▁ambit	-5784
▁apron	-5785
▁aston	-5786
▁avail	-5787
▁azale	-5788
▁badly	-5789
▁bells	-5790
▁brian	-5791
▁brook	-5792
▁buddy	-5793
▁canad	-5794
▁charm	-5795
▁choke	-5796
▁consp	-5797
▁crash	-5798
▁crude	-5799
▁daily	-5800
▁diana	-5801
▁dingy	-5802
▁enjoy	-5803
▁erect	-5804
▁fears	-5805
▁files	-5806
▁forms	-5807
▁frail	-5808
▁fraud	-5809
▁freak	-5810
▁ghost	-5811
▁gives	-5812
▁glist	-5813
▁gloom	-5814
▁glued	-5815
▁harry	-5816
▁henry	-5817
▁incon	-5818
▁jerry	-5819
▁knelt	-5820
▁knuck	-5821
▁latin	-5822
▁leona	-5823
▁level	-5824
▁linen	-5825
▁lousy	-5826
▁lover	-5827
▁maneu	-5828
▁means	-5829
▁medic	-5830
▁memor	-5831
▁micro	-5832
▁model	-5833
▁motiv	-5834
▁movie	-5835
▁muddy	-5836
▁ninet	-5837
▁outer	-5838
▁parts	-5839
▁patch	-5840
▁penet	-5841
▁piano	-5842
▁postp	-5843
▁prove	-5844
▁raise	-5845
▁ranks	-5846
▁reass	-5847
▁regul	-5848
▁rigid	-5849
▁roads	-5850
▁rules	-5851
▁saint	-5852
▁scent	-5853
▁sched	-5854
▁scrap	-5855
▁scrub	-5856
▁seren	-5857
▁shade	-5858
▁shown	-5859
▁skill	-5860
▁slope	-5861
▁soles	-5862
▁songs	-5863
▁spots	-5864
▁stare	-5865
▁strip	-5866
▁swift	-5867
▁swing	-5868
▁teach	-5869
▁theat	-5870
▁thump	-5871
▁tones	-5872
▁tooth	-5873
▁tower	-5874
▁tweed	-5875
▁upset	-5876
▁value	-5877
▁veter	-5878
▁vivid	-5879
▁wages	-5880
▁waist	-5881
▁wiped	-5882
▁yards	-5883
atively	-5884
clusive	-5885
inkling	-5886
istered	-5887
itating	-5888
ologist	-5889
▁absent	-5890
▁accord	-5891
▁adelia	-5892
▁afford	-5893
▁amused	-5894
▁arched	-5895
▁assign	-5896
▁belief	-5897
▁bishop	-5898
▁breeze	-5899
▁bundle	-5900
▁camera	-5901
▁carpet	-5902
▁cathol	-5903
▁caused	-5904
▁cellar	-5905
▁cheeks	-5906
▁cheese	-5907
▁choice	-5908
▁cities	-5909
▁coldly	-5910
▁collar	-5911
▁commit	-5912
▁cotton	-5913
▁create	-5914
▁danced	-5915
▁debate	-5916
▁decent	-5917
▁depend	-5918
▁discip	-5919
▁drawer	-5920
▁emphas	-5921
▁enthus	-5922
▁excell	-5923
▁expert	-5924
▁fairly	-5925
▁felice	-5926
▁ferrar	-5927
▁forest	-5928
▁frozen	-5929
▁furrow	-5930
▁german	-5931
▁gossip	-5932
▁graham	-5933
▁granny	-5934
▁groped	-5935
▁grotes	-5936
▁harder	-5937
▁harlem	-5938
▁hoarse	-5939
▁homely	-5940
▁horror	-5941
▁hyster	-5942
▁inches	-5943
▁inevit	-5944
▁jaguar	-5945
▁janice	-5946
▁jersey	-5947
▁jewish	-5948
▁kissed	-5949
▁kizzie	-5950
▁landed	-5951
▁leaped	-5952
▁licked	-5953
▁longed	-5954
▁lumber	-5955
▁manage	-5956
▁mighty	-5957
▁mister	-5958
▁nellie	-5959
▁ninety	-5960
▁parker	-5961
▁patted	-5962
▁philip	-5963
▁pickup	-5964
▁pieces	-5965
▁pillow	-5966
▁polite	-5967
▁prepar	-5968
▁racing	-5969
▁recent	-5970
▁reject	-5971
▁remote	-5972
▁repeat	-5973
▁rocked	-5974
▁safely	-5975
▁salami	-5976
▁salary	-5977
▁savage	-5978
▁script	-5979
▁seized	-5980
▁severe	-5981
▁shapes	-5982
▁shaved	-5983
▁shrill	-5984
▁skinny	-5985
▁source	-5986
▁splend	-5987
▁sports	-5988
▁sprang	-5989
▁squire	-5990
▁stowey	-5991
▁talent	-5992
▁tasted	-5993
▁tilted	-5994
▁transl	-5995
▁unders	-5996
▁unfort	-5997
▁united	-5998
▁volume	-5999
▁walker	-6000
▁warmed	-6001
▁warned	-6002
▁whitey	-6003
claiming	-6004
kerchief	-6005
ordinary	-6006
oucester	-6007
▁ability	-6008
▁actions	-6009
▁affairs	-6010
▁angrily	-6011
▁annoyed	-6012
▁answers	-6013
▁assured	-6014
▁automob	-6015
▁bearing	-6016
▁behaved	-6017
▁bottles	-6018
▁bubbles	-6019
▁calenda	-6020
▁capital	-6021
▁challen	-6022
▁chambre	-6023
▁charged	-6024
▁chatter	-6025
▁clamped	-6026
▁closely	-6027
▁closing	-6028
▁cluster	-6029
▁correct	-6030
▁crawled	-6031
▁cunning	-6032
▁cursing	-6033
▁decency	-6034
▁details	-6035
▁discour	-6036
▁dripped	-6037
▁drizzle	-6038
▁embrace	-6039
▁extreme	-6040
▁farther	-6041
▁federal	-6042
▁flushed	-6043
▁francie	-6044
▁freedom	-6045
▁frowned	-6046
▁furnace	-6047
▁happens	-6048
▁heavier	-6049
▁hideous	-6050
▁hopeful	-6051
▁hostess	-6052
▁humming	-6053
▁impress	-6054
▁intense	-6055
▁kittens	-6056
▁liberty	-6057
▁locking	-6058
▁loosely	-6059
▁mailbox	-6060
▁manners	-6061
▁matters	-6062
▁message	-6063
▁militia	-6064
▁mothers	-6065
▁nearest	-6066
▁network	-6067
▁nodding	-6068
▁october	-6069
▁ominous	-6070
▁plainly	-6071
▁plaster	-6072
▁players	-6073
▁pushing	-6074
▁registr	-6075
▁request	-6076
▁retired	-6077
▁reuveni	-6078
▁richert	-6079
▁ringing	-6080
▁scented	-6081
▁scratch	-6082
▁shadows	-6083
▁shaving	-6084
▁shifted	-6085
▁sighing	-6086
▁sipping	-6087
▁skipped	-6088
▁skolman	-6089
▁slapped	-6090
▁slashed	-6091
▁stephen	-6092
▁subdued	-6093
▁substit	-6094
▁sucking	-6095
▁sunburn	-6096
▁tremble	-6097
▁trusted	-6098
▁turmoil	-6099
▁univers	-6100
▁visible	-6101
▁volumes	-6102
▁volunte	-6103
▁warning	-6104
▁wearily	-6105
▁welcome	-6106
▁winking	-6107
▁worship	-6108
▁absently	-6109
▁announce	-6110
▁attitude	-6111
▁backward	-6112
▁bancroft	-6113
▁betrayed	-6114
▁branches	-6115
▁chandler	-6116
▁changing	-6117
▁charming	-6118
▁cleaning	-6119
▁climbing	-6120
▁clutched	-6121
▁compound	-6122
▁concrete	-6123
▁congress	-6124
▁crawling	-6125
▁crossing	-6126
▁delaware	-6127
▁distaste	-6128
▁distinct	-6129
▁dramatic	-6130
▁evidence	-6131
▁exciting	-6132
▁eyebrows	-6133
▁farewell	-6134
▁features	-6135
▁fletcher	-6136
▁freezing	-6137
▁glancing	-6138
▁hesitate	-6139
▁homicide	-6140
▁horrible	-6141
▁inquired	-6142
▁instinct	-6143
▁intended	-6144
▁knocking	-6145
▁monmouth	-6146
▁official	-6147
▁overcoat	-6148
▁particip	-6149
▁peculiar	-6150
▁phillips	-6151
▁philosop	-6152
▁pointing	-6153
▁politics	-6154
▁pressure	-6155
▁problems	-6156
▁promptly	-6157
▁properly	-6158
▁prospect	-6159
▁reaching	-6160
▁redcoats	-6161
▁reporter	-6162
▁resident	-6163
▁response	-6164
▁scrawled	-6165
▁security	-6166
▁slippers	-6167
▁smoothed	-6168
▁snatched	-6169
▁solution	-6170
▁sometime	-6171
▁spending	-6172
▁stripped	-6173
▁superior	-6174
▁supplies	-6175
▁swinging	-6176
▁thankful	-6177
▁tourists	-6178
▁training	-6179
▁transfer	-6180
▁tuxapoka	-6181
▁vacation	-6182
▁walitzee	-6183
▁wandered	-6184
▁annoyance	-6185
▁blackwell	-6186
▁collapsed	-6187
▁commanded	-6188
▁constable	-6189
▁delivered	-6190
▁departure	-6191
▁establish	-6192
▁excitedly	-6193
▁greatcoat	-6194
▁immediate	-6195
▁installed	-6196
▁interview	-6197
▁paintings	-6198
▁palestine	-6199
▁perfectly	-6200
▁presented	-6201
▁presiding	-6202
▁prominent	-6203
▁published	-6204
▁remaining	-6205
▁satisfied	-6206
▁sculpture	-6207
▁sensation	-6208
▁separated	-6209
▁seventeen	-6210
▁startling	-6211
▁stiffened	-6212
▁stockings	-6213
▁swallowed	-6214
▁uncertain	-6215
▁violently	-6216
▁wednesday	-6217
▁absolutely	-6218
▁appreciate	-6219
▁background	-6220
▁bitterness	-6221
▁conference	-6222
▁department	-6223
▁detectives	-6224
▁engagement	-6225
▁eventually	-6226
▁furnishing	-6227
▁gloucester	-6228
▁gracefully	-6229
▁identified	-6230
▁impatience	-6231
▁instructed	-6232
▁literature	-6233
▁loneliness	-6234
▁motivation	-6235
▁possession	-6236
▁presumably	-6237
▁reflection	-6238
▁separation	-6239
▁stretching	-6240
▁appointment	-6241
▁approaching	-6242
▁combination	-6243
▁comfortably	-6244
▁electronics	-6245
▁magnificent	-6246
▁possibility	-6247
▁questioning	-6248
▁handkerchief	-6249
▁indifference	-6250
▁automatically	-6251
▁extraordinary	-6252
▁disappointment	-6253
ai	-6254
ec	-6255
ex	-6256
hh	-6257
je	-6258
kn	-6259
uh	-6260
uy	-6261
ya	-6262
zi	-6263
aac	-6264
ado	-6265
aft	-6266
ari	-6267
asp	-6268
auc	-6269
aws	-6270
boc	-6271
bye	-6272
dox	-6273
ear	-6274
eem	-6275
ena	-6276
err	-6277
idd	-6278
inz	-6279
iqu	-6280
iry	-6281
iso	-6282
jim	-6283
kin	-6284
lyn	-6285
mar	-6286
nis	-6287
nut	-6288
oga	-6289
owl	-6290
ras	-6291
rav	-6292
rof	-6293
rom	-6294
roy	-6295
see	-6296
sid	-6297
ste	-6298
ule	-6299
uls	-6300
vet	-6301
▁eh	-6302
▁nu	-6303
abor	-6304
abun	-6305
acia	-6306
acul	-6307
alta	-6308
anny	-6309
aria	-6310
assa	-6311
asts	-6312
avis	-6313
away	-6314
bara	-6315
bear	-6316
beat	-6317
bits	-6318
bone	-6319
cest	-6320
chor	-6321
door	-6322
eble	-6323
ertr	-6324
gage	-6325
gain	-6326
gany	-6327
gnac	-6328
gray	-6329
icit	-6330
ifer	-6331
ilet	-6332
imer	-6333
imul	-6334
iron	-6335
irts	-6336
ithe	-6337
ivel	-6338
ivid	-6339
made	-6340
mond	-6341
name	-6342
neys	-6343
opas	-6344
ples	-6345
pths	-6346
ptim	-6347
quet	-6348
rael	-6349
rays	-6350
semb	-6351
seph	-6352
smet	-6353
tack	-6354
tail	-6355
ture	-6356
uary	-6357
uber	-6358
ucco	-6359
ucky	-6360
uits	-6361
ummy	-6362
umns	-6363
ussy	-6364
yers	-6365
▁aid	-6366
▁alf	-6367
▁arc	-6368
▁aug	-6369
▁axe	-6370
▁bee	-6371
▁bru	-6372
▁bub	-6373
▁cha	-6374
▁ess	-6375
▁goo	-6376
▁hul	-6377
▁icy	-6378
▁jab	-6379
▁las	-6380
▁lum	-6381
▁mcc	-6382
▁oak	-6383
▁obe	-6384
▁ope	-6385
▁pip	-6386
▁pup	-6387
▁ram	-6388
▁roo	-6389
▁sed	-6390
▁sew	-6391
▁sly	-6392
▁suc	-6393
▁tar	-6394
▁tid	-6395
▁tie	-6396
▁tot	-6397
▁umb	-6398
▁unl	-6399
▁vig	-6400
▁web	-6401
acity	-6402
adays	-6403
allow	-6404
ameau	-6405
arded	-6406
ardon	-6407
arily	-6408
asing	-6409
astor	-6410
athed	-6411
beret	-6412
birds	-6413
ckles	-6414
cture	-6415
dding	-6416
dling	-6417
elier	-6418
eliev	-6419
elike	-6420
ender	-6421
ensed	-6422
epend	-6423
estre	-6424
ggins	-6425
going	-6426
grown	-6427
helor	-6428
hness	-6429
horse	-6430
icing	-6431
ickie	-6432
illac	-6433
inate	-6434
itary	-6435
ivery	-6436
known	-6437
osato	-6438
outed	-6439
ppers	-6440
preme	-6441
rella	-6442
retta	-6443
secut	-6444
teous	-6445
tured	-6446
uable	-6447
udged	-6448
unned	-6449
urate	-6450
ushes	-6451
ussle	-6452
uting	-6453
utral	-6454
venue	-6455
watch	-6456
▁ackn	-6457
▁adul	-6458
▁ages	-6459
▁alas	-6460
▁bass	-6461
▁beep	-6462
▁belt	-6463
▁benc	-6464
▁bren	-6465
▁brow	-6466
▁bunk	-6467
▁butt	-6468
▁cate	-6469
▁catt	-6470
▁cham	-6471
▁chur	-6472
▁clar	-6473
▁clue	-6474
▁clum	-6475
▁cred	-6476
▁cups	-6477
▁cush	-6478
▁dart	-6479
▁deck	-6480
▁dock	-6481
▁educ	-6482
▁exit	-6483
▁eyed	-6484
▁fame	-6485
▁folk	-6486
▁funk	-6487
▁glim	-6488
▁grie	-6489
▁guns	-6490
▁harp	-6491
▁heel	-6492
▁hens	-6493
▁hint	-6494
▁hose	-6495
▁hust	-6496
▁inex	-6497
▁ital	-6498
▁item	-6499
▁jail	-6500
▁jake	-6501
▁jeff	-6502
▁lain	-6503
▁lane	-6504
▁latt	-6505
▁laws	-6506
▁leaf	-6507
▁ling	-6508
▁lisa	-6509
▁maho	-6510
▁mant	-6511
▁mead	-6512
▁mini	-6513
▁mock	-6514
▁monk	-6515
▁nove	-6516
▁oath	-6517
▁odor	-6518
▁outr	-6519
▁pall	-6520
▁pike	-6521
▁pole	-6522
▁pomp	-6523
▁pron	-6524
▁pump	-6525
▁puny	-6526
▁qual	-6527
▁race	-6528
▁rawl	-6529
▁ribs	-6530
▁ripe	-6531
▁risk	-6532
▁role	-6533
▁rope	-6534
▁rosa	-6535
▁rude	-6536
▁russ	-6537
▁sant	-6538
▁scan	-6539
▁sche	-6540
▁sept	-6541
▁shin	-6542
▁shri	-6543
▁sill	-6544
▁slim	-6545
▁slit	-6546
▁smug	-6547
▁soap	-6548
▁sofa	-6549
▁soup	-6550
▁sunk	-6551
▁swam	-6552
▁tank	-6553
▁tear	-6554
▁term	-6555
▁tico	-6556
▁tool	-6557
▁uhhu	-6558
▁virt	-6559
▁wash	-6560
▁wipe	-6561
▁wret	-6562
▁yawn	-6563
abitch	-6564
amping	-6565
anitor	-6566
anting	-6567
arling	-6568
asping	-6569
bocnik	-6570
coming	-6571
consin	-6572
ferent	-6573
iastic	-6574
iculty	-6575
ilated	-6576
isoned	-6577
itions	-6578
itudes	-6579
lement	-6580
lished	-6581
nation	-6582
otassa	-6583
ounter	-6584
ration	-6585
remony	-6586
ugging	-6587
uggled	-6588
uished	-6589
unched	-6590
unting	-6591
urried	-6592
ursday	-6593
▁abbey	-6594
▁afric	-6595
▁agony	-6596
▁agree	-6597
▁alarm	-6598
▁alibi	-6599
▁angle	-6600
▁ankle	-6601
▁avoid	-6602
▁awoke	-6603
▁balls	-6604
▁barge	-6605
▁basis	-6606
▁beans	-6607
▁bleak	-6608
▁boats	-6609
▁boxes	-6610
▁breed	-6611
▁brist	-6612
▁camps	-6613
▁ching	-6614
▁citiz	-6615
▁clubs	-6616
▁coinc	-6617
▁comin	-6618
▁conve	-6619
▁craft	-6620
▁creep	-6621
▁crisp	-6622
▁curse	-6623
▁delic	-6624
▁desol	-6625
▁diego	-6626
▁ditch	-6627
▁dolly	-6628
▁dough	-6629
▁drain	-6630
▁dread	-6631
▁drown	-6632
▁dunne	-6633
▁dusty	-6634
▁easel	-6635
▁edges	-6636
▁enlar	-6637
▁exhib	-6638
▁explo	-6639
▁falls	-6640
▁fetch	-6641
▁flame	-6642
▁flour	-6643
▁folly	-6644
▁frant	-6645
▁froze	-6646
▁gazed	-6647
▁gerry	-6648
▁gertr	-6649
▁glare	-6650
▁glory	-6651
▁glove	-6652
▁groin	-6653
▁guilt	-6654
▁hairs	-6655
▁hairy	-6656
▁hunch	-6657
▁ideal	-6658
▁idiot	-6659
▁imper	-6660
▁indef	-6661
▁inher	-6662
▁insol	-6663
▁instr	-6664
▁intim	-6665
▁irish	-6666
▁irons	-6667
▁isaac	-6668
▁ivory	-6669
▁judge	-6670
▁knock	-6671
▁laban	-6672
▁lamps	-6673
▁legal	-6674
▁likes	-6675
▁lists	-6676
▁logic	-6677
▁louis	-6678
▁melzi	-6679
▁minor	-6680
▁monst	-6681
▁motor	-6682
▁mustn	-6683
▁naval	-6684
▁optim	-6685
▁paced	-6686
▁pants	-6687
▁pause	-6688
▁peril	-6689
▁perio	-6690
▁phony	-6691
▁piled	-6692
▁pills	-6693
▁prett	-6694
▁prick	-6695
▁prote	-6696
▁punct	-6697
▁purch	-6698
▁purse	-6699
▁pussy	-6700
▁queen	-6701
▁queer	-6702
▁quinz	-6703
▁raced	-6704
▁radic	-6705
▁repet	-6706
▁reser	-6707
▁rever	-6708
▁ricco	-6709
▁rides	-6710
▁satir	-6711
▁saved	-6712
▁scant	-6713
▁scarf	-6714
▁scrut	-6715
▁shone	-6716
▁shoot	-6717
▁slice	-6718
▁souls	-6719
▁spell	-6720
▁spire	-6721
▁split	-6722
▁spraw	-6723
▁stars	-6724
▁steam	-6725
▁style	-6726
▁swear	-6727
▁sweep	-6728
▁tails	-6729
▁takes	-6730
▁techn	-6731
▁tense	-6732
▁theme	-6733
▁tours	-6734
▁towel	-6735
▁trace	-6736
▁treat	-6737
▁trips	-6738
▁twist	-6739
▁ulcer	-6740
▁unimp	-6741
▁weird	-6742
▁withd	-6743
▁wrath	-6744
▁wreck	-6745
amation	-6746
icating	-6747
ictable	-6748
ingling	-6749
married	-6750
nderoga	-6751
ndleton	-6752
olution	-6753
respond	-6754
rolling	-6755
ruction	-6756
section	-6757
sisters	-6758
smetics	-6759
ularity	-6760
unately	-6761
▁affect	-6762
▁agnese	-6763
▁ancest	-6764
▁anchor	-6765
▁angels	-6766
▁appeal	-6767
▁artist	-6768
▁astron	-6769
▁autumn	-6770
▁awaken	-6771
▁bathed	-6772
▁bewild	-6773
▁bigger	-6774
▁blades	-6775
▁blocks	-6776
▁boxell	-6777
▁branch	-6778
▁brandy	-6779
▁brings	-6780
▁bubble	-6781
▁burden	-6782
▁buried	-6783
▁canada	-6784
▁cancer	-6785
▁chewed	-6786
▁coffin	-6787
▁cognac	-6788
▁corpse	-6789
▁courty	-6790
▁cracks	-6791
▁cradle	-6792
▁crouch	-6793
▁crying	-6794
▁dammit	-6795
▁deacon	-6796
▁defend	-6797
▁demons	-6798
▁depths	-6799
▁dishes	-6800
▁draper	-6801
▁drying	-6802
▁duties	-6803
▁elabor	-6804
▁explos	-6805
▁famous	-6806
▁fences	-6807
▁firmly	-6808
▁fisher	-6809
▁flames	-6810
▁floors	-6811
▁forbid	-6812
▁forces	-6813
▁forked	-6814
▁formal	-6815
▁former	-6816
▁framed	-6817
▁france	-6818
▁gloves	-6819
▁heated	-6820
▁herold	-6821
▁hidden	-6822
▁histor	-6823
▁hotels	-6824
▁humili	-6825
▁hunger	-6826
▁impact	-6827
▁improv	-6828
▁income	-6829
▁infant	-6830
▁inning	-6831
▁invari	-6832
▁israel	-6833
▁jammed	-6834
▁joseph	-6835
▁ledger	-6836
▁lively	-6837
▁lounge	-6838
▁lugged	-6839
▁mainly	-6840
▁master	-6841
▁mental	-6842
▁mickie	-6843
▁millie	-6844
▁modest	-6845
▁morose	-6846
▁motors	-6847
▁neglig	-6848
▁nested	-6849
▁outfit	-6850
▁oyabun	-6851
▁pardon	-6852
▁paunch	-6853
▁phoned	-6854
▁pigeon	-6855
▁plants	-6856
▁plowed	-6857
▁points	-6858
▁preced	-6859
▁prints	-6860
▁proves	-6861
▁punish	-6862
▁quarre	-6863
▁rameau	-6864
▁remove	-6865
▁resemb	-6866
▁result	-6867
▁robbed	-6868
▁robert	-6869
▁rubber	-6870
▁sacred	-6871
▁samuel	-6872
▁scient	-6873
▁selena	-6874
▁senses	-6875
▁shabby	-6876
▁shaken	-6877
▁shoved	-6878
▁skiffs	-6879
▁skopas	-6880
▁sloven	-6881
▁sorrow	-6882
▁spades	-6883
▁stimul	-6884
▁stolen	-6885
▁strict	-6886
▁string	-6887
▁subtle	-6888
▁supply	-6889
▁sweaty	-6890
▁tables	-6891
▁tender	-6892
▁theirs	-6893
▁thirst	-6894
▁tissue	-6895
▁toilet	-6896
▁traged	-6897
▁transp	-6898
▁triple	-6899
▁tussle	-6900
▁unbear	-6901
▁urgent	-6902
▁vacuum	-6903
▁verand	-6904
▁waking	-6905
▁waters	-6906
▁weekly	-6907
▁whites	-6908
▁winked	-6909
▁wiping	-6910
▁wishes	-6911
▁writer	-6912
astrophe	-6913
▁accacia	-6914
▁admassy	-6915
▁advance	-6916
▁alabama	-6917
▁alastor	-6918
▁america	-6919
▁applied	-6920
▁artists	-6921
▁awfully	-6922
▁balance	-6923
▁barbara	-6924
▁begging	-6925
▁bellboy	-6926
▁benches	-6927
▁benefit	-6928
▁bequest	-6929
▁blocked	-6930
▁blushed	-6931
▁bouquet	-6932
▁buzzing	-6933
▁camaret	-6934
▁caution	-6935
▁chances	-6936
▁changes	-6937
▁clicked	-6938
▁columns	-6939
▁command	-6940
▁complex	-6941
▁concept	-6942
▁conduct	-6943
▁connect	-6944
▁conspir	-6945
▁consult	-6946
▁contest	-6947
▁contrad	-6948
▁cracked	-6949
▁crosson	-6950
▁curtain	-6951
▁dentist	-6952
▁depress	-6953
▁dismiss	-6954
▁doctors	-6955
▁drugged	-6956
▁drunken	-6957
▁eagerly	-6958
▁element	-6959
▁emptied	-6960
▁example	-6961
▁existed	-6962
▁exposed	-6963
▁failure	-6964
▁farmers	-6965
▁favored	-6966
▁flooded	-6967
▁fragile	-6968
▁freight	-6969
▁gardens	-6970
▁germans	-6971
▁glaring	-6972
▁gleamed	-6973
▁granted	-6974
▁grasped	-6975
▁grounds	-6976
▁grunted	-6977
▁happier	-6978
▁happily	-6979
▁heading	-6980
▁immense	-6981
▁individ	-6982
▁involve	-6983
▁janitor	-6984
▁jerking	-6985
▁lawyers	-6986
▁marched	-6987
▁massive	-6988
▁matches	-6989
▁midship	-6990
▁mistake	-6991
▁muscles	-6992
▁nagging	-6993
▁negroes	-6994
▁nephews	-6995
▁neutral	-6996
▁nursery	-6997
▁nursing	-6998
▁obliged	-6999
▁orville	-7000
▁pacific	-7001
▁partner	-7002
▁peralta	-7003
▁plastic	-7004
▁pockets	-7005
▁pouring	-7006
▁pretend	-7007
▁printed	-7008
▁process	-7009
▁product	-7010
▁project	-7011
▁prostit	-7012
▁quarrel	-7013
▁raising	-7014
▁receive	-7015
▁records	-7016
▁reports	-7017
▁respond	-7018
▁rounded	-7019
▁scandal	-7020
▁selfish	-7021
▁seventh	-7022
▁shelves	-7023
▁similar	-7024
▁sixteen	-7025
▁smoking	-7026
▁sneaked	-7027
▁sophist	-7028
▁sposato	-7029
▁stacked	-7030
▁stained	-7031
▁stalked	-7032
▁staying	-7033
▁studies	-7034
▁stunned	-7035
▁supreme	-7036
▁tearing	-7037
▁thanked	-7038
▁tissues	-7039
▁torment	-7040
▁totally	-7041
▁trained	-7042
▁transom	-7043
▁trapped	-7044
▁treated	-7045
▁unknown	-7046
▁warming	-7047
▁weigand	-7048
▁willing	-7049
▁yelling	-7050
ationship	-7051
conscious	-7052
ification	-7053
▁accounts	-7054
▁adjusted	-7055
▁admitted	-7056
▁advanced	-7057
▁anderson	-7058
▁angelina	-7059
▁argument	-7060
▁bachelor	-7061
▁bandaged	-7062
▁banister	-7063
▁bitterly	-7064
▁bleeding	-7065
▁blessing	-7066
▁boarding	-7067
▁bouncing	-7068
▁broadway	-7069
▁brooding	-7070
▁brooklyn	-7071
▁cadillac	-7072
▁capacity	-7073
▁ceremony	-7074
▁choosing	-7075
▁churches	-7076
▁civilian	-7077
▁compared	-7078
▁complain	-7079
▁coolness	-7080
▁counting	-7081
▁covering	-7082
▁cowbirds	-7083
▁declared	-7084
▁defiance	-7085
▁detailed	-7086
▁dragging	-7087
▁dripping	-7088
▁engineer	-7089
▁eventual	-7090
▁everyday	-7091
▁exchange	-7092
▁exercise	-7093
▁extended	-7094
▁fearless	-7095
▁feelings	-7096
▁gertrude	-7097
▁greatest	-7098
▁groggins	-7099
▁guardino	-7100
▁hardtack	-7101
▁herberet	-7102
▁inserted	-7103
▁knuckles	-7104
▁lattimer	-7105
▁lighting	-7106
▁machines	-7107
▁magazine	-7108
▁mahogany	-7109
▁mattered	-7110
▁medfield	-7111
▁medicine	-7112
▁mentally	-7113
▁millions	-7114
▁murmured	-7115
▁november	-7116
▁nowadays	-7117
▁observed	-7118
▁offering	-7119
▁operetta	-7120
▁optimism	-7121
▁original	-7122
▁overalls	-7123
▁overhead	-7124
▁patronne	-7125
▁preserve	-7126
▁profound	-7127
▁proposal	-7128
▁propriet	-7129
▁punished	-7130
▁rawlings	-7131
▁relieved	-7132
▁rustling	-7133
▁salesman	-7134
▁scornful	-7135
▁shutters	-7136
▁sketches	-7137
▁snapping	-7138
▁snuggled	-7139
▁solitary	-7140
▁squeezed	-7141
▁starbird	-7142
▁stopping	-7143
▁struggle	-7144
▁swelling	-7145
▁thumping	-7146
▁thursday	-7147
▁ultimate	-7148
▁umbrella	-7149
▁unbeliev	-7150
▁valuable	-7151
▁vanished	-7152
▁violence	-7153
▁worrying	-7154
▁according	-7155
▁administr	-7156
▁advantage	-7157
▁alongside	-7158
▁americans	-7159
▁attendant	-7160
▁attentive	-7161
▁automatic	-7162
▁available	-7163
▁bartender	-7164
▁beckworth	-7165
▁blackness	-7166
▁bothering	-7167
▁caressing	-7168
▁committed	-7169
▁community	-7170
▁continent	-7171
▁cosmetics	-7172
▁delighted	-7173
▁disappear	-7174
▁encounter	-7175
▁encourage	-7176
▁exception	-7177
▁exclaimed	-7178
▁exclusive	-7179
▁exhausted	-7180
▁expressed	-7181
▁factories	-7182
▁fantastic	-7183
▁financing	-7184
▁fireplace	-7185
▁footsteps	-7186
▁fortunate	-7187
▁furiously	-7188
▁furnished	-7189
▁generally	-7190
▁globocnik	-7191
▁gradually	-7192
▁grotesque	-7193
▁happening	-7194
▁honorable	-7195
▁honotassa	-7196
▁household	-7197
▁imaginary	-7198
▁increased	-7199
▁intellect	-7200
▁lightning	-7201
▁mailboxes	-7202
▁miniature	-7203
▁musicians	-7204
▁muttering	-7205
▁neglected	-7206
▁northeast	-7207
▁occasions	-7208
▁operation	-7209
▁painfully	-7210
▁pendleton	-7211
▁plumpness	-7212
▁political	-7213
▁preparing	-7214
▁presently	-7215
▁quinzaine	-7216
▁reception	-7217
▁recommend	-7218
▁regretted	-7219
▁relatives	-7220
▁responsib	-7221
▁scrambled	-7222
▁screeched	-7223
▁sidewalks	-7224
▁staggered	-7225
▁staircase	-7226
▁straining	-7227
▁suffering	-7228
▁suitcases	-7229
▁testament	-7230
▁thrusting	-7231
▁wisconsin	-7232
consciously	-7233
▁acceptance	-7234
▁accomplish	-7235
▁activities	-7236
▁attractive	-7237
▁automobile	-7238
▁collection	-7239
▁complained	-7240
▁confession	-7241
▁continuing	-7242
▁convenient	-7243
▁convention	-7244
▁correspond	-7245
▁difficulty	-7246
▁directions	-7247
▁electronic	-7248
▁employment	-7249
▁enormously	-7250
▁flannagans	-7251
▁flashlight	-7252
▁hysterical	-7253
▁inspection	-7254
▁introduced	-7255
▁management	-7256
▁motionless	-7257
▁mouthpiece	-7258
▁newspapers	-7259
▁permission	-7260
▁production	-7261
▁pronounced	-7262
▁protection	-7263
▁questioned	-7264
▁reflecting	-7265
▁registered	-7266
▁suggestion	-7267
▁surrounded	-7268
▁suspicious	-7269
▁sweetheart	-7270
▁telephoned	-7271
▁unbearable	-7272
▁university	-7273
▁astonishing	-7274
▁catastrophe	-7275
▁conditioner	-7276
▁convenience	-7277
▁countenance	-7278
▁established	-7279
▁explanation	-7280
▁frantically	-7281
▁furnishings	-7282
▁indifferent	-7283
▁indignation	-7284
▁photographs	-7285
▁remembering	-7286
▁respectable	-7287
▁responsible	-7288
▁ticonderoga	-7289
▁unfortunate	-7290
▁affectionate	-7291
▁anticipation	-7292
▁considerably	-7293
▁deliberately	-7294
▁disappointed	-7295
▁fingerprints	-7296
▁organization	-7297
▁relationship	-7298
▁surprisingly	-7299
▁thoughtfully	-7300
▁triumphantly	-7301
▁unexpectedly	-7302
▁communication	-7303
▁sophisticated	-7304
▁stubblefields	-7305
▁uncomfortable	-7306
arl	-7307
azz	-7308
eds	-7309
edy	-7310
ews	-7311
gue	-7312
iah	-7313
obs	-7314
osu	-7315
pir	-7316
rud	-7317
six	-7318
spi	-7319
tos	-7320
ugs	-7321
▁cy	-7322
▁dw	-7323
▁tv	-7324
▁um	-7325
akin	-7326
anys	-7327
athy	-7328
atya	-7329
ault	-7330
bags	-7331
bles	-7332
blue	-7333
bott	-7334
bted	-7335
chen	-7336
conf	-7337
deep	-7338
dler	-7339
doll	-7340
ecut	-7341
elle	-7342
elly	-7343
etic	-7344
etta	-7345
fall	-7346
fety	-7347
grim	-7348
hirt	-7349
ials	-7350
iami	-7351
ibly	-7352
icyc	-7353
ifty	-7354
imum	-7355
izab	-7356
kins	-7357
lest	-7358
lict	-7359
look	-7360
maid	-7361
mail	-7362
mmer	-7363
mont	-7364
ndez	-7365
nest	-7366
oire	-7367
omae	-7368
onne	-7369
oons	-7370
oses	-7371
owls	-7372
post	-7373
rams	-7374
reek	-7375
ront	-7376
rose	-7377
soci	-7378
spel	-7379
thea	-7380
type	-7381
uffs	-7382
ugly	-7383
verb	-7384
vial	-7385
▁amm	-7386
▁aux	-7387
▁bib	-7388
▁bio	-7389
▁cub	-7390
▁eli	-7391
▁esk	-7392
▁huh	-7393
▁hyp	-7394
▁ivy	-7395
▁jet	-7396
▁joc	-7397
▁jug	-7398
▁loc	-7399
pin	-7400
tho	-7401
tty	-7402
ula	-7403
zza	-7404
arer	-7405
gram	-7406
jour	-7407
ldom	-7408
phis	-7409
psed	-7410
rate	-7411
turn	-7412
▁bos	-7413
▁mme	-7414
▁mov	-7415
▁orn	-7416
▁owe	-7417
▁paj	-7418
▁pra	-7419
▁raw	-7420
▁ron	-7421
▁sen	-7422
▁sob	-7423
▁syn	-7424
▁tag	-7425
▁yok	-7426
▁zoo	-7427
ademy	-7428
agger	-7429
agues	-7430
ailed	-7431
ainty	-7432
alted	-7433
ancho	-7434
archy	-7435
arent	-7436
asper	-7437
asphe	-7438
assed	-7439
athic	-7440
athom	-7441
atomy	-7442
aweed	-7443
bance	-7444
bbing	-7445
bones	-7446
cross	-7447
drunk	-7448
eemen	-7449
elled	-7450
ember	-7451
emies	-7452
eneva	-7453
enzie	-7454
estic	-7455
fifty	-7456
iated	-7457
icken	-7458
icker	-7459
idity	-7460
iforn	-7461
igned	-7462
inals	-7463
inked	-7464
inois	-7465
irley	-7466
irmed	-7467
iters	-7468
itual	-7469
jured	-7470
lands	-7471
landt	-7472
levol	-7473
liest	-7474
lines	-7475
mates	-7476
nings	-7477
ology	-7478
oncho	-7479
onies	-7480
orary	-7481
ormed	-7482
osuka	-7483
oyama	-7484
patit	-7485
phone	-7486
phony	-7487
pleas	-7488
ppled	-7489
raway	-7490
riate	-7491
rieve	-7492
sburg	-7493
scuse	-7494
shirt	-7495
shore	-7496
sized	-7497
stage	-7498
stick	-7499
aky	-7500
apt	-7501
bra	-7502
cor	-7503
dum	-7504
ius	-7505
lit	-7506
anqu	-7507
cely	-7508
icle	-7509
mist	-7510
orer	-7511
race	-7512
raft	-7513
sels	-7514
uses	-7515
uste	-7516
vins	-7517
▁aqu	-7518
▁coy	-7519
▁dew	-7520
▁elo	-7521
▁ket	-7522
▁lun	-7523
assau	-7524
class	-7525
craft	-7526
orist	-7527
stone	-7528
ulner	-7529
urous	-7530
utted	-7531
uyler	-7532
vance	-7533
▁acey	-7534
▁ache	-7535
▁aged	-7536
▁aide	-7537
▁alix	-7538
▁alto	-7539
▁ammo	-7540
▁asia	-7541
▁bald	-7542
▁bann	-7543
▁bite	-7544
▁bolt	-7545
▁brig	-7546
▁bron	-7547
▁cage	-7548
▁calf	-7549
▁caps	-7550
▁carr	-7551
▁cart	-7552
▁cast	-7553
▁cler	-7554
▁coal	-7555
▁coin	-7556
▁coop	-7557
▁copy	-7558
▁cort	-7559
▁cure	-7560
▁cuts	-7561
▁dale	-7562
▁deaf	-7563
▁diet	-7564
▁dime	-7565
▁dise	-7566
▁disg	-7567
▁diss	-7568
▁dive	-7569
▁dool	-7570
▁drex	-7571
▁ease	-7572
▁ends	-7573
▁envy	-7574
▁fate	-7575
▁feed	-7576
▁fest	-7577
▁flut	-7578
▁gasp	-7579
▁glam	-7580
▁glee	-7581
▁grav	-7582
▁greg	-7583
▁grud	-7584
▁guar	-7585
▁gulf	-7586
▁gust	-7587
▁guts	-7588
▁hats	-7589
▁hong	-7590
▁hoof	-7591
▁impr	-7592
▁incl	-7593
▁jist	-7594
▁joys	-7595
▁judg	-7596
▁jury	-7597
▁kong	-7598
▁lace	-7599
ym	-7600
cee	-7601
dri	-7602
fig	-7603
hey	-7604
agan	-7605
agic	-7606
chie	-7607
inch	-7608
rant	-7609
seen	-7610
▁fou	-7611
▁gab	-7612
▁gig	-7613
▁git	-7614
▁gou	-7615
▁lac	-7616
▁mig	-7617
▁myn	-7618
▁vue	-7619
enger	-7620
illas	-7621
inted	-7622
orter	-7623
yards	-7624
▁bind	-7625
▁boil	-7626
▁boot	-7627
▁dron	-7628
▁evad	-7629
▁fain	-7630
▁goal	-7631
▁lamp	-7632
▁leth	-7633
▁lids	-7634
▁lond	-7635
▁mate	-7636
▁math	-7637
▁mudd	-7638
▁nast	-7639
▁nerv	-7640
▁nude	-7641
▁obst	-7642
▁outc	-7643
▁peer	-7644
▁pert	-7645
▁plac	-7646
▁powd	-7647
▁pray	-7648
▁prec	-7649
▁prog	-7650
▁pung	-7651
▁rans	-7652
▁ratt	-7653
▁redd	-7654
▁reno	-7655
▁resc	-7656
▁rugs	-7657
▁rule	-7658
▁sash	-7659
▁scen	-7660
▁seep	-7661
▁shit	-7662
▁slee	-7663
▁slip	-7664
▁smir	-7665
▁sock	-7666
▁sore	-7667
▁stab	-7668
▁stem	-7669
▁subm	-7670
▁surm	-7671
▁synd	-7672
▁tack	-7673
▁tame	-7674
▁teen	-7675
▁thax	-7676
▁thyn	-7677
▁tide	-7678
▁tons	-7679
▁trif	-7680
▁trim	-7681
▁unch	-7682
▁undo	-7683
▁unle	-7684
▁urge	-7685
▁wary	-7686
▁wigg	-7687
▁wiry	-7688
▁wool	-7689
▁wren	-7690
▁yidd	-7691
abouts	-7692
amming	-7693
angled	-7694
angler	-7695
athing	-7696
avened	-7697
cience	-7698
dollar	-7699
ads	-7700
any	-7701
aux	-7702
aza	-7703
cel	-7704
don	-7705
dut	-7706
fta	-7707
his	-7708
fton	-7709
gate	-7710
ills	-7711
lell	-7712
oute	-7713
rets	-7714
ware	-7715
week	-7716
▁der	-7717
▁gal	-7718
▁lil	-7719
▁mam	-7720
▁rat	-7721
▁tel	-7722
▁vou	-7723
▁woo	-7724
glass	-7725
itled	-7726
▁cher	-7727
▁darn	-7728
▁disd	-7729
▁glit	-7730
▁knot	-7731
▁lies	-7732
▁rags	-7733
▁reck	-7734
▁rein	-7735
▁sale	-7736
▁seed	-7737
▁trop	-7738
ancial	-7739
chored	-7740
filled	-7741
graphy	-7742
herent	-7743
idated	-7744
igator	-7745
inable	-7746
incial	-7747
ingale	-7748
inkles	-7749
insula	-7750
isible	-7751
itches	-7752
lellan	-7753
loving	-7754
mother	-7755
orting	-7756
ortion	-7757
porary	-7758
preted	-7759
priced	-7760
rating	-7761
rentic	-7762
ritory	-7763
rofski	-7764
rolled	-7765
script	-7766
siders	-7767
skirts	-7768
strils	-7769
thodox	-7770
thouse	-7771
uality	-7772
umpled	-7773
uously	-7774
urable	-7775
urgers	-7776
uthers	-7777
venile	-7778
vingly	-7779
▁accus	-7780
▁acres	-7781
▁acted	-7782
▁airpl	-7783
▁alber	-7784
▁amuse	-7785
▁apart	-7786
▁appet	-7787
▁april	-7788
▁arian	-7789
▁armch	-7790
▁armed	-7791
▁armor	-7792
▁arose	-7793
▁arrow	-7794
▁asian	-7795
▁bangs	-7796
▁barns	-7797
▁baton	-7798
▁bayon	-7799
gs	-7800
nn	-7801
arf	-7802
ask	-7803
for	-7804
joy	-7805
lls	-7806
nan	-7807
omp	-7808
org	-7809
allo	-7810
iche	-7811
lard	-7812
lled	-7813
orse	-7814
rain	-7815
sink	-7816
▁gin	-7817
▁ris	-7818
civer	-7819
enact	-7820
erick	-7821
llers	-7822
morrh	-7823
ulous	-7824
▁asce	-7825
▁drab	-7826
▁eleg	-7827
▁joll	-7828
▁null	-7829
▁pave	-7830
▁reun	-7831
▁sher	-7832
▁sust	-7833
▁task	-7834
▁yach	-7835
arison	-7836
boards	-7837
finger	-7838
icycle	-7839
lihood	-7840
vering	-7841
▁ammun	-7842
▁bedsp	-7843
▁beeps	-7844
▁berry	-7845
▁blade	-7846
▁bloom	-7847
▁booby	-7848
▁bowed	-7849
▁brisk	-7850
▁brows	-7851
▁bucks	-7852
▁buggy	-7853
▁bulky	-7854
▁burch	-7855
▁calls	-7856
▁candy	-7857
▁cases	-7858
▁cents	-7859
▁chain	-7860
▁chord	-7861
▁cigar	-7862
▁cinch	-7863
▁cliff	-7864
▁cling	-7865
▁clods	-7866
▁clump	-7867
▁clung	-7868
▁colts	-7869
▁couch	-7870
▁cream	-7871
▁creek	-7872
▁crook	-7873
▁curly	-7874
▁curve	-7875
▁daddy	-7876
▁dazed	-7877
▁denny	-7878
▁disag	-7879
▁dozed	-7880
▁draft	-7881
▁dronk	-7882
▁drums	-7883
▁dryly	-7884
▁dully	-7885
▁eaten	-7886
▁elbow	-7887
▁eliot	-7888
▁entry	-7889
▁eskim	-7890
▁exult	-7891
▁feels	-7892
▁feroc	-7893
▁fever	-7894
▁filth	-7895
▁flock	-7896
▁flush	-7897
▁focus	-7898
▁frequ	-7899
bon	-7900
com	-7901
hic	-7902
ini	-7903
win	-7904
▁kr	-7905
alog	-7906
cars	-7907
heer	-7908
rawn	-7909
▁dow	-7910
▁flu	-7911
▁nas	-7912
▁pic	-7913
▁tin	-7914
anked	-7915
gnant	-7916
inkle	-7917
ishes	-7918
▁arts	-7919
▁cork	-7920
▁dang	-7921
▁ency	-7922
▁jeal	-7923
▁jolt	-7924
▁lave	-7925
▁lint	-7926
▁paot	-7927
▁quit	-7928
▁rebu	-7929
▁unsm	-7930
▁vent	-7931
enched	-7932
luence	-7933
spikes	-7934
topped	-7935
▁abern	-7936
▁alter	-7937
▁bloss	-7938
▁civic	-7939
▁concl	-7940
▁delin	-7941
▁freya	-7942
▁fuzzy	-7943
▁gaily	-7944
▁galli	-7945
▁gaudy	-7946
▁goose	-7947
▁gorge	-7948
▁grape	-7949
▁grill	-7950
▁gross	-7951
▁grubb	-7952
▁guerr	-7953
▁hafta	-7954
▁heels	-7955
▁hello	-7956
▁hetty	-7957
▁hound	-7958
▁ignor	-7959
▁infur	-7960
▁james	-7961
▁jorge	-7962
▁jowls	-7963
▁	-7964
e	-7965
t	-7966
a	-7967
o	-7968
n	-7969
h	-7970
i	-7971
s	-7972
r	-7973
d	-7974
l	-7975
u	-7976
w	-7977
m	-7978
c	-7979
g	-7980
f	-7981
y	-7982
p	-7983
b	-7984
k	-7985
v	-7986
'	-7987
j	-7988
x	-7989
-	-7990
z	-7991
q	-7992
0	-7993
4	-7994
2	-7995
8	-7996
